{
  "version": "1.0",
  "truncation": null,
  "padding": null,
  "added_tokens": [
    {
      "id": 0,
      "content": "<pad>",
      "single_word": false,
      "lstrip": false,
      "rstrip": false,
      "normalized": false,
      "special": true
    },
    {
      "id": 1,
      "content": "<unk>",
      "single_word": false,
      "lstrip": false,
      "rstrip": false,
      "normalized": false,
      "special": true
    },
    {
      "id": 2,
      "content": "<start>",
      "single_word": false,
      "lstrip": false,
      "rstrip": false,
      "normalized": false,
      "special": true
    },
    {
      "id": 3,
      "content": "<end>",
      "single_word": false,
      "lstrip": false,
      "rstrip": false,
      "normalized": false,
      "special": true
    }
  ],
  "normalizer": null,
  "pre_tokenizer": {
    "type": "Whitespace"
  },
  "post_processor": null,
  "decoder": null,
  "model": {
    "type": "BPE",
    "dropout": null,
    "unk_token": null,
    "continuing_subword_prefix": null,
    "end_of_word_suffix": null,
    "fuse_unk": false,
    "byte_fallback": false,
    "ignore_merges": false,
    "vocab": {
      "<pad>": 0,
      "<unk>": 1,
      "<start>": 2,
      "<end>": 3,
      "!": 4,
      "\"": 5,
      "$": 6,
      "'": 7,
      ",": 8,
      "-": 9,
      ".": 10,
      "0": 11,
      "1": 12,
      "2": 13,
      "3": 14,
      "4": 15,
      "5": 16,
      "6": 17,
      "7": 18,
      "8": 19,
      "9": 20,
      ":": 21,
      "<": 22,
      ">": 23,
      "?": 24,
      "a": 25,
      "b": 26,
      "c": 27,
      "d": 28,
      "e": 29,
      "f": 30,
      "g": 31,
      "h": 32,
      "i": 33,
      "j": 34,
      "k": 35,
      "l": 36,
      "m": 37,
      "n": 38,
      "o": 39,
      "p": 40,
      "q": 41,
      "r": 42,
      "s": 43,
      "t": 44,
      "u": 45,
      "v": 46,
      "w": 47,
      "x": 48,
      "y": 49,
      "z": 50,
      "€": 51,
      "en": 52,
      "ar": 53,
      "st": 54,
      "end": 55,
      "art": 56,
      "start": 57,
      "he": 58,
      "in": 59,
      "ou": 60,
      "the": 61,
      "to": 62,
      "is": 63,
      "ha": 64,
      "on": 65,
      "you": 66,
      "re": 67,
      "an": 68,
      "ve": 69,
      "me": 70,
      "it": 71,
      "ing": 72,
      "or": 73,
      "le": 74,
      "ll": 75,
      "th": 76,
      "er": 77,
      "ed": 78,
      "as": 79,
      "ow": 80,
      "hat": 81,
      "at": 82,
      "of": 83,
      "ay": 84,
      "do": 85,
      "ke": 86,
      "be": 87,
      "se": 88,
      "li": 89,
      "we": 90,
      "ld": 91,
      "oo": 92,
      "tom": 93,
      "ver": 94,
      "no": 95,
      "ri": 96,
      "di": 97,
      "al": 98,
      "my": 99,
      "for": 100,
      "that": 101,
      "ch": 102,
      "go": 103,
      "was": 104,
      "have": 105,
      "ro": 106,
      "this": 107,
      "es": 108,
      "she": 109,
      "ad": 110,
      "co": 111,
      "all": 112,
      "one": 113,
      "are": 114,
      "wh": 115,
      "what": 116,
      "ent": 117,
      "ge": 118,
      "ce": 119,
      "day": 120,
      "gh": 121,
      "now": 122,
      "your": 123,
      "can": 124,
      "te": 125,
      "ther": 126,
      "ill": 127,
      "don": 128,
      "his": 129,
      "im": 130,
      "ould": 131,
      "ac": 132,
      "ti": 133,
      "ne": 134,
      "out": 135,
      "her": 136,
      "and": 137,
      "ir": 138,
      "mo": 139,
      "ght": 140,
      "so": 141,
      "ain": 142,
      "very": 143,
      "ake": 144,
      "ab": 145,
      "us": 146,
      "like": 147,
      "fe": 148,
      "wit": 149,
      "un": 150,
      "ut": 151,
      "ant": 152,
      "with": 153,
      "will": 154,
      "not": 155,
      "here": 156,
      "ple": 157,
      "ook": 158,
      "him": 159,
      "lo": 160,
      "pe": 161,
      "sh": 162,
      "si": 163,
      "did": 164,
      "know": 165,
      "ly": 166,
      "de": 167,
      "am": 168,
      "wor": 169,
      "tr": 170,
      "any": 171,
      "ur": 172,
      "up": 173,
      "how": 174,
      "want": 175,
      "fa": 176,
      "time": 177,
      "has": 178,
      "come": 179,
      "ye": 180,
      "there": 181,
      "bo": 182,
      "po": 183,
      "ong": 184,
      "ion": 185,
      "ap": 186,
      "ic": 187,
      "ho": 188,
      "ter": 189,
      "thing": 190,
      "mar": 191,
      "king": 192,
      "ase": 193,
      "mu": 194,
      "pl": 195,
      "su": 196,
      "they": 197,
      "han": 198,
      "get": 199,
      "ca": 200,
      "ood": 201,
      "id": 202,
      "way": 203,
      "rom": 204,
      "ex": 205,
      "ul": 206,
      "our": 207,
      "ag": 208,
      "by": 209,
      "red": 210,
      "let": 211,
      "every": 212,
      "ish": 213,
      "who": 214,
      "some": 215,
      "had": 216,
      "book": 217,
      "sa": 218,
      "ster": 219,
      "work": 220,
      "from": 221,
      "man": 222,
      "row": 223,
      "would": 224,
      "oun": 225,
      "read": 226,
      "when": 227,
      "about": 228,
      "please": 229,
      "where": 230,
      "ink": 231,
      "if": 232,
      "wo": 233,
      "ind": 234,
      "hel": 235,
      "see": 236,
      "live": 237,
      "age": 238,
      "la": 239,
      "pen": 240,
      "going": 241,
      "help": 242,
      "af": 243,
      "der": 244,
      "been": 245,
      "ack": 246,
      "didn": 247,
      "ight": 248,
      "qu": 249,
      "take": 250,
      "com": 251,
      "ave": 252,
      "but": 253,
      "fo": 254,
      "look": 255,
      "long": 256,
      "ry": 257,
      "ree": 258,
      "father": 259,
      "could": 260,
      "ive": 261,
      "make": 262,
      "were": 263,
      "new": 264,
      "should": 265,
      "spe": 266,
      "wat": 267,
      "ine": 268,
      "ble": 269,
      "gl": 270,
      "ile": 271,
      "use": 272,
      "ers": 273,
      "ig": 274,
      "pro": 275,
      "ra": 276,
      "home": 277,
      "car": 278,
      "too": 279,
      "hap": 280,
      "ate": 281,
      "ak": 282,
      "con": 283,
      "dy": 284,
      "good": 285,
      "jo": 286,
      "mone": 287,
      "orrow": 288,
      "ation": 289,
      "ally": 290,
      "fee": 291,
      "urn": 292,
      "money": 293,
      "ep": 294,
      "ten": 295,
      "ard": 296,
      "res": 297,
      "think": 298,
      "ck": 299,
      "ct": 300,
      "two": 301,
      "today": 302,
      "off": 303,
      "ried": 304,
      "got": 305,
      "back": 306,
      "say": 307,
      "indi": 308,
      "ang": 309,
      "own": 310,
      "tomorrow": 311,
      "ild": 312,
      "sw": 313,
      "than": 314,
      "ust": 315,
      "ouse": 316,
      "oom": 317,
      "ess": 318,
      "mary": 319,
      "india": 320,
      "other": 321,
      "room": 322,
      "stu": 323,
      "ous": 324,
      "never": 325,
      "must": 326,
      "fore": 327,
      "fri": 328,
      "il": 329,
      "mad": 330,
      "old": 331,
      "tal": 332,
      "turn": 333,
      "does": 334,
      "much": 335,
      "bro": 336,
      "cle": 337,
      "clo": 338,
      "house": 339,
      "um": 340,
      "engl": 341,
      "stand": 342,
      "more": 343,
      "year": 344,
      "yester": 345,
      "play": 346,
      "again": 347,
      "last": 348,
      "yesterday": 349,
      "give": 350,
      "many": 351,
      "ren": 352,
      "sp": 353,
      "ta": 354,
      "these": 355,
      "rive": 356,
      "child": 357,
      "tell": 358,
      "made": 359,
      "english": 360,
      "ice": 361,
      "op": 362,
      "wa": 363,
      "wr": 364,
      "rest": 365,
      "dog": 366,
      "lie": 367,
      "mother": 368,
      "speak": 369,
      "friend": 370,
      "ist": 371,
      "may": 372,
      "ning": 373,
      "night": 374,
      "ople": 375,
      "ue": 376,
      "went": 377,
      "people": 378,
      "ame": 379,
      "ach": 380,
      "br": 381,
      "ff": 382,
      "mon": 383,
      "ought": 384,
      "nothing": 385,
      "ound": 386,
      "ever": 387,
      "ty": 388,
      "won": 389,
      "them": 390,
      "tor": 391,
      "alway": 392,
      "why": 393,
      "able": 394,
      "under": 395,
      "watch": 396,
      "always": 397,
      "bus": 398,
      "lf": 399,
      "pre": 400,
      "ite": 401,
      "leave": 402,
      "belie": 403,
      "try": 404,
      "marri": 405,
      "happ": 406,
      "call": 407,
      "down": 408,
      "et": 409,
      "ful": 410,
      "pr": 411,
      "put": 412,
      "rain": 413,
      "sm": 414,
      "ask": 415,
      "door": 416,
      "bet": 417,
      "beca": 418,
      "diff": 419,
      "acc": 420,
      "used": 421,
      "lot": 422,
      "after": 423,
      "job": 424,
      "children": 425,
      "believe": 426,
      "cl": 427,
      "ted": 428,
      "ure": 429,
      "ven": 430,
      "isn": 431,
      "answ": 432,
      "ort": 433,
      "ket": 434,
      "before": 435,
      "well": 436,
      "ool": 437,
      "teac": 438,
      "body": 439,
      "feel": 440,
      "wait": 441,
      "marriage": 442,
      "teacher": 443,
      "au": 444,
      "bir": 445,
      "ment": 446,
      "par": 447,
      "ran": 448,
      "run": 449,
      "sed": 450,
      "hed": 451,
      "their": 452,
      "ity": 453,
      "three": 454,
      "love": 455,
      "train": 456,
      "ready": 457,
      "happy": 458,
      "bu": 459,
      "bed": 460,
      "big": 461,
      "gr": 462,
      "ie": 463,
      "low": 464,
      "open": 465,
      "sch": 466,
      "vis": 467,
      "ence": 468,
      "into": 469,
      "ough": 470,
      "led": 471,
      "doing": 472,
      "self": 473,
      "right": 474,
      "understand": 475,
      "school": 476,
      "away": 477,
      "ber": 478,
      "ctor": 479,
      "ds": 480,
      "ft": 481,
      "hard": 482,
      "mor": 483,
      "pic": 484,
      "xt": 485,
      "stay": 486,
      "really": 487,
      "meet": 488,
      "doctor": 489,
      "need": 490,
      "couldn": 491,
      "talk": 492,
      "answer": 493,
      "drive": 494,
      "est": 495,
      "eat": 496,
      "ma": 497,
      "ph": 498,
      "ss": 499,
      "tle": 500,
      "wal": 501,
      "ass": 502,
      "next": 503,
      "most": 504,
      "soon": 505,
      "sible": 506,
      "everyone": 507,
      "iled": 508,
      "air": 509,
      "cat": 510,
      "cut": 511,
      "ear": 512,
      "eas": 513,
      "lt": 514,
      "lit": 515,
      "ving": 516,
      "ze": 517,
      "ary": 518,
      "ise": 519,
      "hair": 520,
      "met": 521,
      "left": 522,
      "keep": 523,
      "beg": 524,
      "while": 525,
      "ents": 526,
      "tired": 527,
      "few": 528,
      "sister": 529,
      "world": 530,
      "true": 531,
      "times": 532,
      "boy": 533,
      "pos": 534,
      "ident": 535,
      "letter": 536,
      "saw": 537,
      "ount": 538,
      "quest": 539,
      "water": 540,
      "blem": 541,
      "problem": 542,
      "brother": 543,
      "question": 544,
      "bl": 545,
      "bor": 546,
      "care": 547,
      "dr": 548,
      "em": 549,
      "gir": 550,
      "ide": 551,
      "jap": 552,
      "lar": 553,
      "mind": 554,
      "smo": 555,
      "ste": 556,
      "leep": 557,
      "seen": 558,
      "dic": 559,
      "lost": 560,
      "yet": 561,
      "plain": 562,
      "ult": 563,
      "something": 564,
      "looking": 565,
      "study": 566,
      "doesn": 567,
      "friends": 568,
      "because": 569,
      "girl": 570,
      "japan": 571,
      "cal": 572,
      "cket": 573,
      "dis": 574,
      "dres": 575,
      "ek": 576,
      "fin": 577,
      "ger": 578,
      "ies": 579,
      "ious": 580,
      "mist": 581,
      "ner": 582,
      "per": 583,
      "ru": 584,
      "sit": 585,
      "tend": 586,
      "ught": 587,
      "ually": 588,
      "ars": 589,
      "told": 590,
      "once": 591,
      "ital": 592,
      "alth": 593,
      "days": 594,
      "tea": 595,
      "irst": 596,
      "without": 597,
      "show": 598,
      "such": 599,
      "came": 600,
      "ours": 601,
      "books": 602,
      "said": 603,
      "afra": 604,
      "coming": 605,
      "happen": 606,
      "wrong": 607,
      "little": 608,
      "afraid": 609,
      "bought": 610,
      "cof": 611,
      "chan": 612,
      "ele": 613,
      "fi": 614,
      "ily": 615,
      "ky": 616,
      "name": 617,
      "pt": 618,
      "part": 619,
      "port": 620,
      "sleep": 621,
      "yes": 622,
      "head": 623,
      "inte": 624,
      "ised": 625,
      "ory": 626,
      "life": 627,
      "week": 628,
      "already": 629,
      "road": 630,
      "cold": 631,
      "sho": 632,
      "six": 633,
      "wanted": 634,
      "both": 635,
      "poli": 636,
      "looked": 637,
      "saying": 638,
      "clock": 639,
      "month": 640,
      "differ": 641,
      "phone": 642,
      "walk": 643,
      "possible": 644,
      "drink": 645,
      "mistake": 646,
      "coffee": 647,
      "interest": 648,
      "ath": 649,
      "cc": 650,
      "che": 651,
      "dd": 652,
      "fun": 653,
      "fam": 654,
      "food": 655,
      "gave": 656,
      "just": 657,
      "lang": 658,
      "men": 659,
      "mit": 660,
      "mat": 661,
      "ness": 662,
      "pers": 663,
      "sin": 664,
      "sing": 665,
      "sun": 666,
      "ting": 667,
      "tried": 668,
      "wind": 669,
      "around": 670,
      "sto": 671,
      "stop": 672,
      "health": 673,
      "tow": 674,
      "ance": 675,
      "ved": 676,
      "lear": 677,
      "river": 678,
      "died": 679,
      "alone": 680,
      "col": 681,
      "tele": 682,
      "likes": 683,
      "apple": 684,
      "hand": 685,
      "exam": 686,
      "talking": 687,
      "years": 688,
      "morning": 689,
      "pict": 690,
      "early": 691,
      "easy": 692,
      "dress": 693,
      "police": 694,
      "langu": 695,
      "person": 696,
      ".\"": 697,
      "bre": 698,
      "bit": 699,
      "bad": 700,
      "ball": 701,
      "ding": 702,
      "done": 703,
      "fly": 704,
      "first": 705,
      "gs": 706,
      "gu": 707,
      "gre": 708,
      "hur": 709,
      "hours": 710,
      "ms": 711,
      "pul": 712,
      "sent": 713,
      "tv": 714,
      "ycle": 715,
      "arrive": 716,
      "str": 717,
      "station": 718,
      "another": 719,
      "thday": 720,
      "ween": 721,
      "noon": 722,
      "almost": 723,
      "usually": 724,
      "side": 725,
      "knows": 726,
      "anything": 727,
      "wants": 728,
      "comes": 729,
      "poin": 730,
      "icycle": 731,
      "plan": 732,
      "caught": 733,
      "news": 734,
      "swim": 735,
      "asked": 736,
      "between": 737,
      "accident": 738,
      "birthday": 739,
      "running": 740,
      "buy": 741,
      "large": 742,
      "smoking": 743,
      "party": 744,
      "00": 745,
      "ast": 746,
      "bab": 747,
      "bicycle": 748,
      "cre": 749,
      "city": 750,
      "du": 751,
      "des": 752,
      "eyes": 753,
      "five": 754,
      "found": 755,
      "kind": 756,
      "lat": 757,
      "pon": 758,
      "pri": 759,
      "prom": 760,
      "sha": 761,
      "sur": 762,
      "sup": 763,
      "wi": 764,
      "ins": 765,
      "only": 766,
      "ves": 767,
      "mer": 768,
      "medic": 769,
      "llow": 770,
      "list": 771,
      "nobody": 772,
      "ries": 773,
      "forgot": 774,
      "cannot": 775,
      "tion": 776,
      "abroad": 777,
      "felt": 778,
      "dec": 779,
      "anyone": 780,
      "failed": 781,
      "box": 782,
      "icult": 783,
      "hot": 784,
      "things": 785,
      "married": 786,
      "follow": 787,
      "took": 788,
      "cont": 789,
      "anger": 790,
      "broke": 791,
      "watching": 792,
      "small": 793,
      "difficult": 794,
      "waiting": 795,
      "born": 796,
      "happened": 797,
      "shoes": 798,
      "town": 799,
      "learn": 800,
      "medicine": 801,
      "ather": 802,
      "bag": 803,
      "ced": 804,
      "ces": 805,
      "cook": 806,
      "coun": 807,
      "cry": 808,
      "din": 809,
      "danger": 810,
      "eight": 811,
      "fish": 812,
      "hun": 813,
      "ken": 814,
      "knew": 815,
      "late": 816,
      "mis": 817,
      "mus": 818,
      "mine": 819,
      "nice": 820,
      "ob": 821,
      "over": 822,
      "ped": 823,
      "pow": 824,
      "rough": 825,
      "sor": 826,
      "slow": 827,
      "vo": 828,
      "enough": 829,
      "still": 830,
      "hear": 831,
      "ished": 832,
      "through": 833,
      "ated": 834,
      "beau": 835,
      "ses": 836,
      "rica": 837,
      "die": 838,
      "ross": 839,
      "allow": 840,
      "tiful": 841,
      "mov": 842,
      "dep": 843,
      "sure": 844,
      "sudd": 845,
      "explain": 846,
      "someone": 847,
      "reading": 848,
      "quit": 849,
      "comp": 850,
      "clean": 851,
      "busy": 852,
      "better": 853,
      "afternoon": 854,
      "class": 855,
      "parents": 856,
      "questions": 857,
      "idea": 858,
      "mistakes": 859,
      "since": 860,
      "hurry": 861,
      "baby": 862,
      "surpr": 863,
      "country": 864,
      "dinner": 865,
      "music": 866,
      "beautiful": 867,
      "sudden": 868,
      "ace": 869,
      "cor": 870,
      "cer": 871,
      "cup": 872,
      "cap": 873,
      "dre": 874,
      "each": 875,
      "fu": 876,
      "gar": 877,
      "ging": 878,
      "hor": 879,
      "igh": 880,
      "min": 881,
      "pi": 882,
      "pres": 883,
      "sc": 884,
      "spo": 885,
      "war": 886,
      "whe": 887,
      "wish": 888,
      "xious": 889,
      "story": 890,
      "heard": 891,
      "iness": 892,
      "haven": 893,
      "return": 894,
      "anxious": 895,
      "med": 896,
      "itten": 897,
      "lly": 898,
      "key": 899,
      "kept": 900,
      "wel": 901,
      "noise": 902,
      "dist": 903,
      "als": 904,
      "along": 905,
      "forget": 906,
      "adv": 907,
      "teach": 908,
      "act": 909,
      "move": 910,
      "sol": 911,
      "sick": 912,
      "appoin": 913,
      "ick": 914,
      "sugar": 915,
      "exc": 916,
      "expen": 917,
      "everything": 918,
      "works": 919,
      "wouldn": 920,
      "lives": 921,
      "thank": 922,
      "others": 923,
      "stud": 924,
      "written": 925,
      "bring": 926,
      "monday": 927,
      "wonder": 928,
      "became": 929,
      "grand": 930,
      "visit": 931,
      "fire": 932,
      "difference": 933,
      "matter": 934,
      "window": 935,
      "picture": 936,
      "language": 937,
      "desk": 938,
      "later": 939,
      "power": 940,
      "sorry": 941,
      "slowly": 942,
      "depend": 943,
      "surprised": 944,
      "aut": 945,
      "aust": 946,
      "bt": 947,
      "ban": 948,
      "cri": 949,
      "case": 950,
      "cess": 951,
      "chair": 952,
      "eg": 953,
      "eart": 954,
      "far": 955,
      "fall": 956,
      "find": 957,
      "free": 958,
      "flow": 959,
      "gn": 960,
      "har": 961,
      "hind": 962,
      "ich": 963,
      "je": 964,
      "ju": 965,
      "jum": 966,
      "might": 967,
      "mach": 968,
      "mmer": 969,
      "nis": 970,
      "ose": 971,
      "rum": 972,
      "son": 973,
      "ser": 974,
      "sat": 975,
      "swe": 976,
      "tre": 977,
      "vill": 978,
      "eng": 979,
      "arrest": 980,
      "stood": 981,
      "inion": 982,
      "inking": 983,
      "inste": 984,
      "ouble": 985,
      "thes": 986,
      "ison": 987,
      "less": 988,
      "ason": 989,
      "doll": 990,
      "best": 991,
      "behind": 992,
      "set": 993,
      "lia": 994,
      "light": 995,
      "weather": 996,
      "rid": 997,
      "rich": 998,
      "wash": 999,
      "rope": 1000,
      "advis": 1001,
      "address": 1002,
      "which": 1003,
      "yours": 1004,
      "ticket": 1005,
      "outside": 1006,
      "fever": 1007,
      "utes": 1008,
      "pect": 1009,
      "sive": 1010,
      "size": 1011,
      "tru": 1012,
      "trouble": 1013,
      "fast": 1014,
      "poor": 1015,
      "summer": 1016,
      "getting": 1017,
      "expect": 1018,
      "ages": 1019,
      "everybody": 1020,
      "saved": 1021,
      "wherever": 1022,
      "quick": 1023,
      "complain": 1024,
      "looks": 1025,
      "longer": 1026,
      "makes": 1027,
      "shouldn": 1028,
      "ralia": 1029,
      "homework": 1030,
      "tennis": 1031,
      "respon": 1032,
      "cted": 1033,
      "clothes": 1034,
      "standing": 1035,
      "playing": 1036,
      "against": 1037,
      "tax": 1038,
      "opinion": 1039,
      "write": 1040,
      "pret": 1041,
      "aught": 1042,
      "birds": 1043,
      "range": 1044,
      "pick": 1045,
      "talks": 1046,
      "making": 1047,
      "boys": 1048,
      "black": 1049,
      "emp": 1050,
      "disappoin": 1051,
      "rule": 1052,
      "showed": 1053,
      "kyo": 1054,
      "interesting": 1055,
      "family": 1056,
      "sunday": 1057,
      "telephone": 1058,
      "wife": 1059,
      "listen": 1060,
      "suddenly": 1061,
      "fully": 1062,
      "minutes": 1063,
      "whether": 1064,
      "expensive": 1065,
      "australia": 1066,
      "bank": 1067,
      "eggs": 1068,
      "earth": 1069,
      "flowers": 1070,
      "rumor": 1071,
      "village": 1072,
      "instead": 1073,
      "19": 1074,
      "?\"": 1075,
      "athe": 1076,
      "base": 1077,
      "bby": 1078,
      "bath": 1079,
      "cent": 1080,
      "cried": 1081,
      "count": 1082,
      "daught": 1083,
      "eu": 1084,
      "even": 1085,
      "fre": 1086,
      "fer": 1087,
      "foo": 1088,
      "fif": 1089,
      "fren": 1090,
      "grow": 1091,
      "ip": 1092,
      "lon": 1093,
      "lake": 1094,
      "main": 1095,
      "mur": 1096,
      "mber": 1097,
      "mount": 1098,
      "num": 1099,
      "occ": 1100,
      "pas": 1101,
      "pat": 1102,
      "pay": 1103,
      "pain": 1104,
      "pie": 1105,
      "pass": 1106,
      "rat": 1107,
      "sow": 1108,
      "snow": 1109,
      "sky": 1110,
      "tent": 1111,
      "ug": 1112,
      "ute": 1113,
      "ures": 1114,
      "vor": 1115,
      "vent": 1116,
      "win": 1117,
      "wood": 1118,
      "yed": 1119,
      "zen": 1120,
      "zed": 1121,
      "aren": 1122,
      "arro": 1123,
      "sts": 1124,
      "stree": 1125,
      "strange": 1126,
      "heat": 1127,
      "inve": 1128,
      "oud": 1129,
      "tokyo": 1130,
      "having": 1131,
      "rea": 1132,
      "reap": 1133,
      "resu": 1134,
      "anim": 1135,
      "vered": 1136,
      "mes": 1137,
      "memor": 1138,
      "member": 1139,
      "then": 1140,
      "thie": 1141,
      "thinking": 1142,
      "attend": 1143,
      "being": 1144,
      "vern": 1145,
      "govern": 1146,
      "cost": 1147,
      "covered": 1148,
      "yourself": 1149,
      "tee": 1150,
      "tem": 1151,
      "import": 1152,
      "across": 1153,
      "near": 1154,
      "necess": 1155,
      "irt": 1156,
      "fell": 1157,
      "lose": 1158,
      "shout": 1159,
      "ship": 1160,
      "shirt": 1161,
      "sil": 1162,
      "known": 1163,
      "working": 1164,
      "trust": 1165,
      "anymore": 1166,
      "anybody": 1167,
      "face": 1168,
      "fault": 1169,
      "favor": 1170,
      "hasn": 1171,
      "thered": 1172,
      "popul": 1173,
      "hosp": 1174,
      "hobby": 1175,
      "hands": 1176,
      "ided": 1177,
      "agree": 1178,
      "whoever": 1179,
      "women": 1180,
      "seems": 1181,
      "lived": 1182,
      "ations": 1183,
      "office": 1184,
      "angry": 1185,
      "older": 1186,
      "clear": 1187,
      "closed": 1188,
      "spend": 1189,
      "taking": 1190,
      "dogs": 1191,
      "brought": 1192,
      "business": 1193,
      "prison": 1194,
      "rains": 1195,
      "raining": 1196,
      "smiled": 1197,
      "feeling": 1198,
      "vision": 1199,
      "stayed": 1200,
      "eating": 1201,
      "began": 1202,
      "begins": 1203,
      "blue": 1204,
      "studying": 1205,
      "called": 1206,
      "finish": 1207,
      "finished": 1208,
      "tends": 1209,
      "interested": 1210,
      "colle": 1211,
      "television": 1212,
      "apples": 1213,
      "break": 1214,
      "strong": 1215,
      "decided": 1216,
      "crying": 1217,
      "movie": 1218,
      "capital": 1219,
      "dream": 1220,
      "horse": 1221,
      "present": 1222,
      "excuse": 1223,
      "grandmother": 1224,
      "arrested": 1225,
      "truth": 1226,
      "quickly": 1227,
      "disappointed": 1228,
      "baseball": 1229,
      "europe": 1230,
      "foot": 1231,
      "french": 1232,
      "london": 1233,
      "mountain": 1234,
      "number": 1235,
      "arrog": 1236,
      "street": 1237,
      "invest": 1238,
      "result": 1239,
      "necessary": 1240,
      "hospital": 1241,
      "10": 1242,
      "aw": 1243,
      "aking": 1244,
      "band": 1245,
      "burn": 1246,
      "brid": 1247,
      "cr": 1248,
      "cy": 1249,
      "cli": 1250,
      "cake": 1251,
      "cur": 1252,
      "crow": 1253,
      "cil": 1254,
      "dou": 1255,
      "el": 1256,
      "ese": 1257,
      "fat": 1258,
      "fut": 1259,
      "four": 1260,
      "fran": 1261,
      "gy": 1262,
      "ged": 1263,
      "gent": 1264,
      "gry": 1265,
      "game": 1266,
      "hus": 1267,
      "hist": 1268,
      "ient": 1269,
      "kid": 1270,
      "kil": 1271,
      "lu": 1272,
      "ming": 1273,
      "map": 1274,
      "mile": 1275,
      "mil": 1276,
      "nine": 1277,
      "pted": 1278,
      "sme": 1279,
      "sim": 1280,
      "tu": 1281,
      "tain": 1282,
      "table": 1283,
      "ub": 1284,
      "ued": 1285,
      "val": 1286,
      "wed": 1287,
      "aring": 1288,
      "ston": 1289,
      "stri": 1290,
      "state": 1291,
      "started": 1292,
      "hes": 1293,
      "hesit": 1294,
      "ina": 1295,
      "inv": 1296,
      "inter": 1297,
      "towel": 1298,
      "hale": 1299,
      "ond": 1300,
      "youn": 1301,
      "rect": 1302,
      "reason": 1303,
      "remain": 1304,
      "remember": 1305,
      "andon": 1306,
      "vel": 1307,
      "its": 1308,
      "itar": 1309,
      "order": 1310,
      "ler": 1311,
      "least": 1312,
      "thir": 1313,
      "throw": 1314,
      "thought": 1315,
      "those": 1316,
      "ash": 1317,
      "ased": 1318,
      "often": 1319,
      "beaut": 1320,
      "sel": 1321,
      "secre": 1322,
      "novel": 1323,
      "ril": 1324,
      "myself": 1325,
      "china": 1326,
      "god": 1327,
      "goes": 1328,
      "ada": 1329,
      "ceive": 1330,
      "canada": 1331,
      "team": 1332,
      "neigh": 1333,
      "iron": 1334,
      "mote": 1335,
      "sold": 1336,
      "abandon": 1337,
      "ush": 1338,
      "uncle": 1339,
      "shop": 1340,
      "sight": 1341,
      "dest": 1342,
      "dead": 1343,
      "dered": 1344,
      "death": 1345,
      "amate": 1346,
      "worry": 1347,
      "trave": 1348,
      "posed": 1349,
      "aper": 1350,
      "appe": 1351,
      "april": 1352,
      "hope": 1353,
      "market": 1354,
      "plant": 1355,
      "place": 1356,
      "sub": 1357,
      "suit": 1358,
      "succ": 1359,
      "exce": 1360,
      "whole": 1361,
      "whose": 1362,
      "safe": 1363,
      "worked": 1364,
      "woman": 1365,
      "laug": 1366,
      "pencil": 1367,
      "africa": 1368,
      "commit": 1369,
      "speaking": 1370,
      "ign": 1371,
      "prote": 1372,
      "rather": 1373,
      "cars": 1374,
      "jog": 1375,
      "join": 1376,
      "cked": 1377,
      "studied": 1378,
      "broken": 1379,
      "player": 1380,
      "speaks": 1381,
      "america": 1382,
      "prefer": 1383,
      "believes": 1384,
      "bigger": 1385,
      "meeting": 1386,
      "airport": 1387,
      "cats": 1388,
      "catch": 1389,
      "easily": 1390,
      "sisters": 1391,
      "larger": 1392,
      "changing": 1393,
      "famous": 1394,
      "pictures": 1395,
      "policeman": 1396,
      "languages": 1397,
      "guitar": 1398,
      "great": 1399,
      "arrived": 1400,
      "plane": 1401,
      "promise": 1402,
      "promised": 1403,
      "shade": 1404,
      "supposed": 1405,
      "contin": 1406,
      "cooked": 1407,
      "dangerous": 1408,
      "hungry": 1409,
      "compan": 1410,
      "company": 1411,
      "correct": 1412,
      "pian": 1413,
      "spoken": 1414,
      "advice": 1415,
      "students": 1416,
      "depends": 1417,
      "cricket": 1418,
      "harder": 1419,
      "ject": 1420,
      "jump": 1421,
      "machine": 1422,
      "satis": 1423,
      "dollars": 1424,
      "responsible": 1425,
      "opinions": 1426,
      "empty": 1427,
      "daughter": 1428,
      "murder": 1429,
      "occur": 1430,
      "reali": 1431,
      "memory": 1432,
      "thief": 1433,
      "government": 1434,
      "population": 1435,
      "college": 1436,
      "investig": 1437,
      "bridge": 1438,
      "doubt": 1439,
      "future": 1440,
      "husband": 1441,
      "history": 1442,
      "killed": 1443,
      "milk": 1444,
      "wedding": 1445,
      "beauty": 1446,
      "secret": 1447,
      "neighbor": 1448,
      "abandoned": 1449,
      "amateur": 1450,
      "travel": 1451,
      "success": 1452,
      "laughed": 1453,
      "30": 1454,
      "ai": 1455,
      "ator": 1456,
      "aving": 1457,
      "ahead": 1458,
      "bi": 1459,
      "bar": 1460,
      "bur": 1461,
      "borrow": 1462,
      "bbed": 1463,
      "bborn": 1464,
      "cou": 1465,
      "cit": 1466,
      "cce": 1467,
      "cong": 1468,
      "cure": 1469,
      "ction": 1470,
      "cross": 1471,
      "dar": 1472,
      "dit": 1473,
      "dro": 1474,
      "dent": 1475,
      "due": 1476,
      "ech": 1477,
      "eye": 1478,
      "ered": 1479,
      "fr": 1480,
      "fic": 1481,
      "fight": 1482,
      "fident": 1483,
      "fact": 1484,
      "ga": 1485,
      "gone": 1486,
      "gree": 1487,
      "gard": 1488,
      "hi": 1489,
      "hid": 1490,
      "ia": 1491,
      "ied": 1492,
      "ience": 1493,
      "ize": 1494,
      "ko": 1495,
      "kit": 1496,
      "kno": 1497,
      "kill": 1498,
      "kite": 1499,
      "len": 1500,
      "lay": 1501,
      "land": 1502,
      "lun": 1503,
      "lack": 1504,
      "mb": 1505,
      "mid": 1506,
      "mouse": 1507,
      "om": 1508,
      "oil": 1509,
      "phan": 1510,
      "pair": 1511,
      "past": 1512,
      "sk": 1513,
      "send": 1514,
      "sof": 1515,
      "sad": 1516,
      "song": 1517,
      "sort": 1518,
      "tw": 1519,
      "tou": 1520,
      "tri": 1521,
      "tall": 1522,
      "till": 1523,
      "tree": 1524,
      "twent": 1525,
      "ured": 1526,
      "wro": 1527,
      "wake": 1528,
      "wine": 1529,
      "yen": 1530,
      "zy": 1531,
      "ens": 1532,
      "ense": 1533,
      "stor": 1534,
      "stant": 1535,
      "stra": 1536,
      "stair": 1537,
      "heart": 1538,
      "int": 1539,
      "ined": 1540,
      "independ": 1541,
      "inju": 1542,
      "toes": 1543,
      "toge": 1544,
      "tonight": 1545,
      "half": 1546,
      "hamed": 1547,
      "ons": 1548,
      "ont": 1549,
      "reco": 1550,
      "rely": 1551,
      "resa": 1552,
      "remind": 1553,
      "receive": 1554,
      "anish": 1555,
      "ances": 1556,
      "veget": 1557,
      "meant": 1558,
      "meals": 1559,
      "ording": 1560,
      "ordered": 1561,
      "legs": 1562,
      "leaving": 1563,
      "thor": 1564,
      "thirst": 1565,
      "asses": 1566,
      "ashamed": 1567,
      "ats": 1568,
      "ating": 1569,
      "ates": 1570,
      "dozen": 1571,
      "become": 1572,
      "seum": 1573,
      "lic": 1574,
      "lies": 1575,
      "libr": 1576,
      "living": 1577,
      "limit": 1578,
      "wears": 1579,
      "ooth": 1580,
      "noti": 1581,
      "rice": 1582,
      "ride": 1583,
      "ridic": 1584,
      "dio": 1585,
      "diam": 1586,
      "ala": 1587,
      "alty": 1588,
      "ality": 1589,
      "form": 1590,
      "char": 1591,
      "wasn": 1592,
      "rot": 1593,
      "royed": 1594,
      "robbed": 1595,
      "admit": 1596,
      "whatever": 1597,
      "enti": 1598,
      "enty": 1599,
      "entered": 1600,
      "cepted": 1601,
      "cancer": 1602,
      "teen": 1603,
      "test": 1604,
      "teresa": 1605,
      "illness": 1606,
      "imit": 1607,
      "ache": 1608,
      "acqu": 1609,
      "ached": 1610,
      "accepted": 1611,
      "til": 1612,
      "herself": 1613,
      "moment": 1614,
      "absent": 1615,
      "feed": 1616,
      "ung": 1617,
      "until": 1618,
      "uts": 1619,
      "antage": 1620,
      "ples": 1621,
      "pleased": 1622,
      "himself": 1623,
      "peace": 1624,
      "shar": 1625,
      "shut": 1626,
      "short": 1627,
      "sign": 1628,
      "lying": 1629,
      "deep": 1630,
      "word": 1631,
      "worse": 1632,
      "words": 1633,
      "traf": 1634,
      "fair": 1635,
      "bother": 1636,
      "bored": 1637,
      "boston": 1638,
      "poem": 1639,
      "pocket": 1640,
      "apart": 1641,
      "icer": 1642,
      "museum": 1643,
      "plenty": 1644,
      "succe": 1645,
      "extent": 1646,
      "ulous": 1647,
      "ager": 1648,
      "aged": 1649,
      "somewhere": 1650,
      "sage": 1651,
      "workers": 1652,
      "law": 1653,
      "helping": 1654,
      "helped": 1655,
      "comm": 1656,
      "butter": 1657,
      "newsp": 1658,
      "speed": 1659,
      "speech": 1660,
      "glad": 1661,
      "glass": 1662,
      "glasses": 1663,
      "promote": 1664,
      "proached": 1665,
      "radio": 1666,
      "consi": 1667,
      "condit": 1668,
      "confident": 1669,
      "joke": 1670,
      "feet": 1671,
      "cky": 1672,
      "ctri": 1673,
      "offer": 1674,
      "officer": 1675,
      "usto": 1676,
      "rooms": 1677,
      "stubborn": 1678,
      "forest": 1679,
      "forever": 1680,
      "foreign": 1681,
      "turned": 1682,
      "close": 1683,
      "spent": 1684,
      "spanish": 1685,
      "taught": 1686,
      "waste": 1687,
      "amed": 1688,
      "brush": 1689,
      "ables": 1690,
      "items": 1691,
      "leaves": 1692,
      "smooth": 1693,
      "accused": 1694,
      "account": 1695,
      "according": 1696,
      "club": 1697,
      "answers": 1698,
      "waited": 1699,
      "author": 1700,
      "bird": 1701,
      "park": 1702,
      "loves": 1703,
      "buried": 1704,
      "build": 1705,
      "grave": 1706,
      "hardly": 1707,
      "staying": 1708,
      "eaten": 1709,
      "mail": 1710,
      "walking": 1711,
      "begin": 1712,
      "brothers": 1713,
      "carefully": 1714,
      "smoke": 1715,
      "chance": 1716,
      "eleven": 1717,
      "electri": 1718,
      "fied": 1719,
      "sleeping": 1720,
      "shot": 1721,
      "different": 1722,
      "ches": 1723,
      "store": 1724,
      "stolen": 1725,
      "breathe": 1726,
      "flying": 1727,
      "guy": 1728,
      "green": 1729,
      "pulled": 1730,
      "point": 1731,
      "swimming": 1732,
      "largest": 1733,
      "duct": 1734,
      "prize": 1735,
      "shall": 1736,
      "super": 1737,
      "following": 1738,
      "contain": 1739,
      "learned": 1740,
      "obser": 1741,
      "voice": 1742,
      "allowed": 1743,
      "movies": 1744,
      "explained": 1745,
      "advantage": 1746,
      "teaching": 1747,
      "student": 1748,
      "wonderful": 1749,
      "chairs": 1750,
      "trees": 1751,
      "engine": 1752,
      "advise": 1753,
      "advised": 1754,
      "tickets": 1755,
      "complaining": 1756,
      "taxi": 1757,
      "pretty": 1758,
      "rules": 1759,
      "fresh": 1760,
      "fifty": 1761,
      "passed": 1762,
      "patient": 1763,
      "pieces": 1764,
      "ratul": 1765,
      "animal": 1766,
      "message": 1767,
      "teeth": 1768,
      "temples": 1769,
      "important": 1770,
      "favorite": 1771,
      "breakfast": 1772,
      "arrogant": 1773,
      "else": 1774,
      "france": 1775,
      "gentle": 1776,
      "lucky": 1777,
      "miles": 1778,
      "simple": 1779,
      "invit": 1780,
      "interpret": 1781,
      "young": 1782,
      "thirty": 1783,
      "selves": 1784,
      "destroyed": 1785,
      "subject": 1786,
      "suitcase": 1787,
      "except": 1788,
      "safety": 1789,
      "protect": 1790,
      "continued": 1791,
      "piano": 1792,
      "satisfied": 1793,
      "neighbors": 1794,
      "couple": 1795,
      "congratul": 1796,
      "dark": 1797,
      "front": 1798,
      "garden": 1799,
      "kites": 1800,
      "lunch": 1801,
      "touch": 1802,
      "trip": 1803,
      "twenty": 1804,
      "wrote": 1805,
      "stairs": 1806,
      "independence": 1807,
      "injured": 1808,
      "together": 1809,
      "recogn": 1810,
      "vegetables": 1811,
      "thirsty": 1812,
      "library": 1813,
      "ridiculous": 1814,
      "acquain": 1815,
      "traffic": 1816,
      "succeed": 1817,
      "condition": 1818,
      "18": 1819,
      "100": 1820,
      "21": 1821,
      "ago": 1822,
      "aid": 1823,
      "alive": 1824,
      "aled": 1825,
      "bow": 1826,
      "bat": 1827,
      "bul": 1828,
      "bread": 1829,
      "cs": 1830,
      "chat": 1831,
      "cus": 1832,
      "cour": 1833,
      "cation": 1834,
      "cous": 1835,
      "ched": 1836,
      "cious": 1837,
      "custo": 1838,
      "den": 1839,
      "ded": 1840,
      "dred": 1841,
      "dra": 1842,
      "dust": 1843,
      "drun": 1844,
      "dance": 1845,
      "econ": 1846,
      "event": 1847,
      "fy": 1848,
      "fit": 1849,
      "fac": 1850,
      "fur": 1851,
      "fine": 1852,
      "fig": 1853,
      "furn": 1854,
      "fused": 1855,
      "fond": 1856,
      "gi": 1857,
      "gen": 1858,
      "gain": 1859,
      "gun": 1860,
      "gut": 1861,
      "gust": 1862,
      "hit": 1863,
      "hone": 1864,
      "hood": 1865,
      "hig": 1866,
      "high": 1867,
      "hens": 1868,
      "iw": 1869,
      "ior": 1870,
      "ico": 1871,
      "ilet": 1872,
      "iries": 1873,
      "ival": 1874,
      "jam": 1875,
      "jung": 1876,
      "ked": 1877,
      "ls": 1878,
      "lhi": 1879,
      "mbed": 1880,
      "ns": 1881,
      "ned": 1882,
      "nake": 1883,
      "nation": 1884,
      "ok": 1885,
      "ps": 1886,
      "ping": 1887,
      "pur": 1888,
      "pho": 1889,
      "pped": 1890,
      "paper": 1891,
      "plies": 1892,
      "ring": 1893,
      "rent": 1894,
      "rup": 1895,
      "rang": 1896,
      "sou": 1897,
      "sal": 1898,
      "sand": 1899,
      "swit": 1900,
      "sour": 1901,
      "swo": 1902,
      "scar": 1903,
      "sence": 1904,
      "scat": 1905,
      "scold": 1906,
      "snake": 1907,
      "tak": 1908,
      "tment": 1909,
      "uce": 1910,
      "uation": 1911,
      "ucation": 1912,
      "vin": 1913,
      "vain": 1914,
      "vic": 1915,
      "vase": 1916,
      "vary": 1917,
      "vide": 1918,
      "viron": 1919,
      "vator": 1920,
      "wall": 1921,
      "wber": 1922,
      "xico": 1923,
      "yor": 1924,
      "ysi": 1925,
      "yard": 1926,
      "enjo": 1927,
      "environ": 1928,
      "arch": 1929,
      "argu": 1930,
      "sting": 1931,
      "stic": 1932,
      "stru": 1933,
      "stars": 1934,
      "stival": 1935,
      "starts": 1936,
      "hea": 1937,
      "hell": 1938,
      "hever": 1939,
      "inse": 1940,
      "inno": 1941,
      "income": 1942,
      "ination": 1943,
      "instr": 1944,
      "inside": 1945,
      "incre": 1946,
      "inhale": 1947,
      "instant": 1948,
      "top": 1949,
      "tory": 1950,
      "toler": 1951,
      "toilet": 1952,
      "ision": 1953,
      "haun": 1954,
      "habit": 1955,
      "youth": 1956,
      "rele": 1957,
      "real": 1958,
      "reach": 1959,
      "regre": 1960,
      "repair": 1961,
      "reproached": 1962,
      "refused": 1963,
      "ans": 1964,
      "answe": 1965,
      "velo": 1966,
      "meal": 1967,
      "mexico": 1968,
      "iting": 1969,
      "ings": 1970,
      "orang": 1971,
      "leg": 1972,
      "les": 1973,
      "lebr": 1974,
      "llen": 1975,
      "lling": 1976,
      "thous": 1977,
      "education": 1978,
      "asing": 1979,
      "asleep": 1980,
      "hated": 1981,
      "hates": 1982,
      "ater": 1983,
      "ature": 1984,
      "ays": 1985,
      "ayed": 1986,
      "bell": 1987,
      "beer": 1988,
      "betr": 1989,
      "beach": 1990,
      "sea": 1991,
      "seas": 1992,
      "seat": 1993,
      "seven": 1994,
      "season": 1995,
      "search": 1996,
      "lion": 1997,
      "wester": 1998,
      "wearing": 1999,
      "oose": 2000,
      "note": 2001,
      "alar": 2002,
      "myster": 2003,
      "ford": 2004,
      "fort": 2005,
      "forgive": 2006,
      "forced": 2007,
      "fortu": 2008,
      "chose": 2009,
      "choose": 2010,
      "gold": 2011,
      "roof": 2012,
      "rodu": 2013,
      "roses": 2014,
      "esday": 2015,
      "sheet": 2016,
      "add": 2017,
      "ade": 2018,
      "adays": 2019,
      "cover": 2020,
      "coal": 2021,
      "arely": 2022,
      "whic": 2023,
      "white": 2024,
      "celebr": 2025,
      "nowadays": 2026,
      "tered": 2027,
      "tears": 2028,
      "impossible": 2029,
      "accompan": 2030,
      "tie": 2031,
      "nests": 2032,
      "ands": 2033,
      "socc": 2034,
      "absol": 2035,
      "absence": 2036,
      "fect": 2037,
      "fected": 2038,
      "festival": 2039,
      "witness": 2040,
      "undone": 2041,
      "willing": 2042,
      "logy": 2043,
      "locked": 2044,
      "pet": 2045,
      "shoo": 2046,
      "sion": 2047,
      "sident": 2048,
      "deer": 2049,
      "decl": 2050,
      "defin": 2051,
      "debt": 2052,
      "degree": 2053,
      "delhi": 2054,
      "among": 2055,
      "amount": 2056,
      "worst": 2057,
      "worth": 2058,
      "worried": 2059,
      "track": 2060,
      "fail": 2061,
      "fairies": 2062,
      "boss": 2063,
      "bothered": 2064,
      "poll": 2065,
      "ionally": 2066,
      "apers": 2067,
      "applies": 2068,
      "hole": 2069,
      "holi": 2070,
      "hold": 2071,
      "tery": 2072,
      "mud": 2073,
      "gets": 2074,
      "cafe": 2075,
      "caused": 2076,
      "exhale": 2077,
      "reduce": 2078,
      "someday": 2079,
      "sometimes": 2080,
      "same": 2081,
      "manager": 2082,
      "wore": 2083,
      "laid": 2084,
      "lazy": 2085,
      "affected": 2086,
      "qui": 2087,
      "quake": 2088,
      "quality": 2089,
      "takes": 2090,
      "comple": 2091,
      "common": 2092,
      "comput": 2093,
      "useful": 2094,
      "igno": 2095,
      "igrat": 2096,
      "progr": 2097,
      "proper": 2098,
      "proved": 2099,
      "product": 2100,
      "race": 2101,
      "ately": 2102,
      "concer": 2103,
      "consc": 2104,
      "convin": 2105,
      "thinks": 2106,
      "backs": 2107,
      "says": 2108,
      "friday": 2109,
      "ility": 2110,
      "umn": 2111,
      "uments": 2112,
      "plays": 2113,
      "spread": 2114,
      "sport": 2115,
      "tail": 2116,
      "taste": 2117,
      "taiw": 2118,
      "maybe": 2119,
      "brit": 2120,
      "monkey": 2121,
      "themselves": 2122,
      "prepar": 2123,
      "prevent": 2124,
      "precious": 2125,
      "president": 2126,
      "marriages": 2127,
      "happiness": 2128,
      "prof": 2129,
      "proud": 2130,
      "rainy": 2131,
      "smile": 2132,
      "lots": 2133,
      "jobs": 2134,
      "clas": 2135,
      "feels": 2136,
      "august": 2137,
      "paris": 2138,
      "loved": 2139,
      "grap": 2140,
      "ield": 2141,
      "selfish": 2142,
      "understanding": 2143,
      "needs": 2144,
      "talked": 2145,
      "answering": 2146,
      "eats": 2147,
      "math": 2148,
      "phr": 2149,
      "physi": 2150,
      "tles": 2151,
      "cutta": 2152,
      "earns": 2153,
      "problems": 2154,
      "careful": 2155,
      "careless": 2156,
      "emigrat": 2157,
      "steal": 2158,
      "diction": 2159,
      "japanese": 2160,
      "calcutta": 2161,
      "dissol": 2162,
      "discus": 2163,
      "dressed": 2164,
      "iousness": 2165,
      "nerves": 2166,
      "perfect": 2167,
      "rude": 2168,
      "situation": 2169,
      "italy": 2170,
      "shows": 2171,
      "change": 2172,
      "changed": 2173,
      "elephan": 2174,
      "elevator": 2175,
      "names": 2176,
      "sleepy": 2177,
      "headache": 2178,
      "weeks": 2179,
      "months": 2180,
      "walked": 2181,
      "cheers": 2182,
      "cheese": 2183,
      "match": 2184,
      "sinking": 2185,
      "single": 2186,
      "sundays": 2187,
      "stole": 2188,
      "stomach": 2189,
      "stopped": 2190,
      "healthy": 2191,
      "toward": 2192,
      "learning": 2193,
      "color": 2194,
      "handed": 2195,
      "examination": 2196,
      "personally": 2197,
      "senten": 2198,
      "cream": 2199,
      "duck": 2200,
      "pond": 2201,
      "price": 2202,
      "pride": 2203,
      "supper": 2204,
      "decision": 2205,
      "followed": 2206,
      "bags": 2207,
      "hundred": 2208,
      "lately": 2209,
      "miss": 2210,
      "missed": 2211,
      "missing": 2212,
      "misunderstanding": 2213,
      "overseas": 2214,
      "musical": 2215,
      "corner": 2216,
      "certain": 2217,
      "cups": 2218,
      "dreamed": 2219,
      "science": 2220,
      "welcome": 2221,
      "distur": 2222,
      "distance": 2223,
      "solved": 2224,
      "exciting": 2225,
      "thanks": 2226,
      "autumn": 2227,
      "farm": 2228,
      "juice": 2229,
      "jumped": 2230,
      "treats": 2231,
      "lights": 2232,
      "listened": 2233,
      "earthquake": 2234,
      "197": 2235,
      "atheist": 2236,
      "countries": 2237,
      "fifteen": 2238,
      "grown": 2239,
      "passport": 2240,
      "animals": 2241,
      "temper": 2242,
      "nearby": 2243,
      "shouted": 2244,
      "silk": 2245,
      "silent": 2246,
      "trusted": 2247,
      "spends": 2248,
      "prisoner": 2249,
      "feelings": 2250,
      "arrogance": 2251,
      "burning": 2252,
      "crash": 2253,
      "climbed": 2254,
      "current": 2255,
      "gym": 2256,
      "kids": 2257,
      "tuesday": 2258,
      "value": 2259,
      "strike": 2260,
      "statement": 2261,
      "hesitation": 2262,
      "shopping": 2263,
      "appear": 2264,
      "plants": 2265,
      "pencils": 2266,
      "committee": 2267,
      "companies": 2268,
      "murders": 2269,
      "occurred": 2270,
      "realize": 2271,
      "realized": 2272,
      "investigate": 2273,
      "successful": 2274,
      "burst": 2275,
      "cities": 2276,
      "gathered": 2277,
      "koala": 2278,
      "knocked": 2279,
      "twice": 2280,
      "storm": 2281,
      "strawber": 2282,
      "introdu": 2283,
      "reminds": 2284,
      "received": 2285,
      "noticed": 2286,
      "diamond": 2287,
      "rotten": 2288,
      "imitate": 2289,
      "sharp": 2290,
      "deeply": 2291,
      "newspapers": 2292,
      "consists": 2293,
      "graveyard": 2294,
      "beginning": 2295,
      "electrical": 2296,
      "breathed": 2297,
      "supermarket": 2298,
      "contains": 2299,
      "observe": 2300,
      "engineer": 2301,
      "gentleman": 2302,
      "invited": 2303,
      "congratulations": 2304,
      "recognize": 2305,
      "acquaint": 2306,
      "conditioner": 2307,
      "cousin": 2308,
      "drunk": 2309,
      "econom": 2310,
      "fying": 2311,
      "further": 2312,
      "given": 2313,
      "gained": 2314,
      "honest": 2315,
      "jungle": 2316,
      "photo": 2317,
      "swollen": 2318,
      "scattered": 2319,
      "scolded": 2320,
      "taken": 2321,
      "video": 2322,
      "york": 2323,
      "enjoyed": 2324,
      "environment": 2325,
      "stingy": 2326,
      "struck": 2327,
      "hello": 2328,
      "insecure": 2329,
      "instruments": 2330,
      "increasing": 2331,
      "tolerate": 2332,
      "haunted": 2333,
      "regret": 2334,
      "answered": 2335,
      "oranges": 2336,
      "thousands": 2337,
      "betrayed": 2338,
      "western": 2339,
      "mystery": 2340,
      "fortune": 2341,
      "sheets": 2342,
      "whichever": 2343,
      "celebrated": 2344,
      "accompanied": 2345,
      "soccer": 2346,
      "absolute": 2347,
      "witnessed": 2348,
      "definite": 2349,
      "tracks": 2350,
      "computer": 2351,
      "program": 2352,
      "products": 2353,
      "consciousness": 2354,
      "convinced": 2355,
      "taiwan": 2356,
      "prevented": 2357,
      "physics": 2358,
      "emigrating": 2359,
      "dictionary": 2360,
      "dissolves": 2361,
      "elephant": 2362,
      "strawberries": 2363,
      ".?": 2364,
      "11": 2365,
      "15": 2366,
      "16": 2367,
      "20": 2368,
      "200": 2369,
      "47": 2370,
      "51": 2371,
      "500": 2372,
      "60": 2373,
      "65": 2374,
      "97": 2375,
      "ado": 2376,
      "awe": 2377,
      "adi": 2378,
      "aco": 2379,
      "alike": 2380,
      "aun": 2381,
      "aur": 2382,
      "apo": 2383,
      "aster": 2384,
      "ause": 2385,
      "aily": 2386,
      "azed": 2387,
      "bon": 2388,
      "bing": 2389,
      "bas": 2390,
      "boo": 2391,
      "bal": 2392,
      "bone": 2393,
      "bent": 2394,
      "bill": 2395,
      "bac": 2396,
      "bun": 2397,
      "bly": 2398,
      "bye": 2399,
      "brow": 2400,
      "boun": 2401,
      "bla": 2402,
      "bile": 2403,
      "bak": 2404,
      "bust": 2405,
      "bum": 2406,
      "bound": 2407,
      "blow": 2408,
      "bber": 2409,
      "bride": 2410,
      "barely": 2411,
      "bility": 2412,
      "ci": 2413,
      "cto": 2414,
      "cha": 2415,
      "cow": 2416,
      "cab": 2417,
      "cking": 2418,
      "cul": 2419,
      "cla": 2420,
      "cra": 2421,
      "cence": 2422,
      "cough": 2423,
      "cise": 2424,
      "cident": 2425,
      "cru": 2426,
      "cute": 2427,
      "cued": 2428,
      "cash": 2429,
      "cured": 2430,
      "dle": 2431,
      "dri": 2432,
      "dad": 2433,
      "dut": 2434,
      "dam": 2435,
      "dur": 2436,
      "dine": 2437,
      "dried": 2438,
      "dren": 2439,
      "driver": 2440,
      "dates": 2441,
      "daily": 2442,
      "eve": 2443,
      "emy": 2444,
      "ease": 2445,
      "equ": 2446,
      "elast": 2447,
      "emer": 2448,
      "eigh": 2449,
      "eager": 2450,
      "easter": 2451,
      "fart": 2452,
      "fis": 2453,
      "fing": 2454,
      "fle": 2455,
      "fro": 2456,
      "fill": 2457,
      "fir": 2458,
      "fain": 2459,
      "fant": 2460,
      "flo": 2461,
      "fla": 2462,
      "fers": 2463,
      "fate": 2464,
      "fool": 2465,
      "flat": 2466,
      "field": 2467,
      "gg": 2468,
      "gan": 2469,
      "gas": 2470,
      "gli": 2471,
      "ges": 2472,
      "gic": 2473,
      "gage": 2474,
      "gate": 2475,
      "gging": 2476,
      "hn": 2477,
      "hu": 2478,
      "hend": 2479,
      "hour": 2480,
      "hide": 2481,
      "hint": 2482,
      "iz": 2483,
      "iat": 2484,
      "ido": 2485,
      "iver": 2486,
      "ither": 2487,
      "ife": 2488,
      "ilo": 2489,
      "iers": 2490,
      "ipul": 2491,
      "imed": 2492,
      "ials": 2493,
      "izen": 2494,
      "ized": 2495,
      "ilies": 2496,
      "ji": 2497,
      "jor": 2498,
      "jac": 2499,
      "jour": 2500,
      "kn": 2501,
      "ks": 2502,
      "kin": 2503,
      "kly": 2504,
      "kilo": 2505,
      "lend": 2506,
      "lin": 2507,
      "lou": 2508,
      "ling": 2509,
      "lad": 2510,
      "lone": 2511,
      "lent": 2512,
      "lac": 2513,
      "lap": 2514,
      "line": 2515,
      "lled": 2516,
      "lined": 2517,
      "mp": 2518,
      "mt": 2519,
      "mou": 2520,
      "mme": 2521,
      "mas": 2522,
      "mill": 2523,
      "mac": 2524,
      "mand": 2525,
      "mir": 2526,
      "mood": 2527,
      "mble": 2528,
      "mala": 2529,
      "malar": 2530,
      "nar": 2531,
      "nin": 2532,
      "nun": 2533,
      "naught": 2534,
      "nons": 2535,
      "nuts": 2536,
      "nause": 2537,
      "oh": 2538,
      "ox": 2539,
      "ove": 2540,
      "obe": 2541,
      "oce": 2542,
      "ota": 2543,
      "odd": 2544,
      "ocol": 2545,
      "osts": 2546,
      "olic": 2547,
      "ology": 2548,
      "octo": 2549,
      "pou": 2550,
      "pha": 2551,
      "poo": 2552,
      "pare": 2553,
      "pun": 2554,
      "ply": 2555,
      "pour": 2556,
      "pink": 2557,
      "page": 2558,
      "pack": 2559,
      "pum": 2560,
      "pound": 2561,
      "pity": 2562,
      "pies": 2563,
      "pours": 2564,
      "pub": 2565,
      "paid": 2566,
      "pkin": 2567,
      "rou": 2568,
      "ris": 2569,
      "roun": 2570,
      "rate": 2571,
      "round": 2572,
      "rty": 2573,
      "rush": 2574,
      "rarely": 2575,
      "sle": 2576,
      "sac": 2577,
      "smu": 2578,
      "sca": 2579,
      "sla": 2580,
      "squ": 2581,
      "sang": 2582,
      "sound": 2583,
      "sity": 2584,
      "scre": 2585,
      "sense": 2586,
      "slap": 2587,
      "tin": 2588,
      "tab": 2589,
      "tise": 2590,
      "tries": 2591,
      "twel": 2592,
      "twin": 2593,
      "toud": 2594,
      "tcy": 2595,
      "ttles": 2596,
      "ual": 2597,
      "ugh": 2598,
      "uish": 2599,
      "uine": 2600,
      "udes": 2601,
      "uries": 2602,
      "ution": 2603,
      "uated": 2604,
      "vy": 2605,
      "van": 2606,
      "vant": 2607,
      "vate": 2608,
      "vable": 2609,
      "vie": 2610,
      "vious": 2611,
      "vital": 2612,
      "vior": 2613,
      "wis": 2614,
      "wer": 2615,
      "wow": 2616,
      "wic": 2617,
      "wers": 2618,
      "ward": 2619,
      "wild": 2620,
      "wool": 2621,
      "wide": 2622,
      "wars": 2623,
      "wins": 2624,
      "wings": 2625,
      "xed": 2626,
      "ys": 2627,
      "ych": 2628,
      "yaw": 2629,
      "yalty": 2630,
      "yield": 2631,
      "zz": 2632,
      "zer": 2633,
      "zoo": 2634,
      "enem": 2635,
      "encour": 2636,
      "envelo": 2637,
      "enemy": 2638,
      "arab": 2639,
      "arms": 2640,
      "arrange": 2641,
      "arrang": 2642,
      "stit": 2643,
      "stat": 2644,
      "stes": 2645,
      "stone": 2646,
      "stab": 2647,
      "stut": 2648,
      "stam": 2649,
      "staring": 2650,
      "stmas": 2651,
      "endation": 2652,
      "artist": 2653,
      "artest": 2654,
      "starting": 2655,
      "hest": 2656,
      "heap": 2657,
      "infor": 2658,
      "inally": 2659,
      "insp": 2660,
      "intell": 2661,
      "incl": 2662,
      "intend": 2663,
      "incess": 2664,
      "intent": 2665,
      "intends": 2666,
      "incident": 2667,
      "oup": 2668,
      "ouds": 2669,
      "theft": 2670,
      "theory": 2671,
      "theater": 2672,
      "toy": 2673,
      "tore": 2674,
      "tobac": 2675,
      "isy": 2676,
      "issor": 2677,
      "island": 2678,
      "hal": 2679,
      "haste": 2680,
      "hache": 2681,
      "hamme": 2682,
      "havior": 2683,
      "ony": 2684,
      "onoun": 2685,
      "onds": 2686,
      "rel": 2687,
      "rer": 2688,
      "rew": 2689,
      "rese": 2690,
      "rever": 2691,
      "refor": 2692,
      "remo": 2693,
      "repe": 2694,
      "respe": 2695,
      "remor": 2696,
      "report": 2697,
      "refun": 2698,
      "relat": 2699,
      "remove": 2700,
      "recent": 2701,
      "remote": 2702,
      "rection": 2703,
      "reform": 2704,
      "resign": 2705,
      "recomm": 2706,
      "rebell": 2707,
      "requi": 2708,
      "resolved": 2709,
      "reply": 2710,
      "anno": 2711,
      "anch": 2712,
      "ange": 2713,
      "anket": 2714,
      "anuts": 2715,
      "anches": 2716,
      "veled": 2717,
      "meas": 2718,
      "meat": 2719,
      "medi": 2720,
      "metal": 2721,
      "metery": 2722,
      "iture": 2723,
      "itself": 2724,
      "ities": 2725,
      "inguish": 2726,
      "orage": 2727,
      "orig": 2728,
      "orance": 2729,
      "orphan": 2730,
      "organ": 2731,
      "lel": 2732,
      "lean": 2733,
      "lead": 2734,
      "leather": 2735,
      "leveled": 2736,
      "lla": 2737,
      "llent": 2738,
      "thin": 2739,
      "thick": 2740,
      "tholic": 2741,
      "threw": 2742,
      "ert": 2743,
      "ery": 2744,
      "erase": 2745,
      "erations": 2746,
      "erature": 2747,
      "ercise": 2748,
      "erials": 2749,
      "eds": 2750,
      "edom": 2751,
      "ases": 2752,
      "asant": 2753,
      "asking": 2754,
      "assa": 2755,
      "asure": 2756,
      "asia": 2757,
      "asionally": 2758,
      "owe": 2759,
      "hate": 2760,
      "atmo": 2761,
      "attent": 2762,
      "atles": 2763,
      "attles": 2764,
      "offe": 2765,
      "dom": 2766,
      "dove": 2767,
      "doable": 2768,
      "bear": 2769,
      "besi": 2770,
      "beard": 2771,
      "becoming": 2772,
      "beast": 2773,
      "beating": 2774,
      "bezz": 2775,
      "behavior": 2776,
      "beatles": 2777,
      "sever": 2778,
      "seats": 2779,
      "seeds": 2780,
      "lier": 2781,
      "lied": 2782,
      "liber": 2783,
      "lift": 2784,
      "liged": 2785,
      "lions": 2786,
      "liked": 2787,
      "wear": 2788,
      "west": 2789,
      "weir": 2790,
      "weig": 2791,
      "wealth": 2792,
      "lder": 2793,
      "verb": 2794,
      "verac": 2795,
      "verti": 2796,
      "vertise": 2797,
      "noisy": 2798,
      "rican": 2799,
      "ribut": 2800,
      "riche": 2801,
      "ridd": 2802,
      "riding": 2803,
      "rifying": 2804,
      "ribly": 2805,
      "ristmas": 2806,
      "dies": 2807,
      "dicted": 2808,
      "dialed": 2809,
      "digging": 2810,
      "dirty": 2811,
      "direction": 2812,
      "alco": 2813,
      "also": 2814,
      "aloud": 2815,
      "aller": 2816,
      "alpha": 2817,
      "allel": 2818,
      "forman": 2819,
      "forgiven": 2820,
      "forward": 2821,
      "chur": 2822,
      "chine": 2823,
      "chocol": 2824,
      "christmas": 2825,
      "golf": 2826,
      "washed": 2827,
      "rol": 2828,
      "rome": 2829,
      "rolling": 2830,
      "escap": 2831,
      "ession": 2832,
      "shed": 2833,
      "sheer": 2834,
      "sheep": 2835,
      "adle": 2836,
      "adding": 2837,
      "aduated": 2838,
      "advertise": 2839,
      "addicted": 2840,
      "core": 2841,
      "coat": 2842,
      "coins": 2843,
      "copi": 2844,
      "copies": 2845,
      "arest": 2846,
      "enter": 2847,
      "ently": 2848,
      "entran": 2849,
      "gest": 2850,
      "gement": 2851,
      "geons": 2852,
      "cel": 2853,
      "cease": 2854,
      "ceil": 2855,
      "cealed": 2856,
      "cemetery": 2857,
      "daytime": 2858,
      "ghosts": 2859,
      "canadi": 2860,
      "tel": 2861,
      "tely": 2862,
      "text": 2863,
      "donuts": 2864,
      "hism": 2865,
      "iment": 2866,
      "imag": 2867,
      "impatient": 2868,
      "immedi": 2869,
      "acy": 2870,
      "acle": 2871,
      "acti": 2872,
      "acknow": 2873,
      "acter": 2874,
      "actor": 2875,
      "acted": 2876,
      "action": 2877,
      "aches": 2878,
      "accompany": 2879,
      "tidy": 2880,
      "tiger": 2881,
      "ney": 2882,
      "neat": 2883,
      "neither": 2884,
      "nearest": 2885,
      "hers": 2886,
      "herman": 2887,
      "iration": 2888,
      "irrel": 2889,
      "mom": 2890,
      "moon": 2891,
      "motor": 2892,
      "moves": 2893,
      "motion": 2894,
      "mocr": 2895,
      "mobile": 2896,
      "ghtens": 2897,
      "sock": 2898,
      "sorely": 2899,
      "abla": 2900,
      "abused": 2901,
      "absur": 2902,
      "ability": 2903,
      "above": 2904,
      "usual": 2905,
      "fear": 2906,
      "feather": 2907,
      "feated": 2908,
      "unic": 2909,
      "unate": 2910,
      "unbelie": 2911,
      "unused": 2912,
      "unity": 2913,
      "unhappy": 2914,
      "unicycle": 2915,
      "unfound": 2916,
      "unless": 2917,
      "unsolved": 2918,
      "univer": 2919,
      "uted": 2920,
      "anted": 2921,
      "within": 2922,
      "loye": 2923,
      "locat": 2924,
      "loving": 2925,
      "loyalty": 2926,
      "peak": 2927,
      "peep": 2928,
      "peaco": 2929,
      "peanuts": 2930,
      "peasant": 2931,
      "shran": 2932,
      "sical": 2933,
      "sibility": 2934,
      "dear": 2935,
      "devo": 2936,
      "deals": 2937,
      "deceive": 2938,
      "develo": 2939,
      "detail": 2940,
      "demand": 2941,
      "deliber": 2942,
      "democr": 2943,
      "defeated": 2944,
      "amend": 2945,
      "ambit": 2946,
      "ambul": 2947,
      "amazed": 2948,
      "tra": 2949,
      "trai": 2950,
      "trans": 2951,
      "trade": 2952,
      "tracted": 2953,
      "anywhere": 2954,
      "ury": 2955,
      "upon": 2956,
      "faster": 2957,
      "boat": 2958,
      "board": 2959,
      "boiled": 2960,
      "bomb": 2961,
      "bottles": 2962,
      "pole": 2963,
      "pose": 2964,
      "pota": 2965,
      "poet": 2966,
      "polit": 2967,
      "poison": 2968,
      "ions": 2969,
      "ioned": 2970,
      "approached": 2971,
      "ics": 2972,
      "icide": 2973,
      "hol": 2974,
      "holly": 2975,
      "hotel": 2976,
      "tering": 2977,
      "termin": 2978,
      "teria": 2979,
      "terribly": 2980,
      "marry": 2981,
      "marked": 2982,
      "mumb": 2983,
      "plus": 2984,
      "plary": 2985,
      "suff": 2986,
      "suade": 2987,
      "suicide": 2988,
      "hang": 2989,
      "cave": 2990,
      "cage": 2991,
      "cause": 2992,
      "catholic": 2993,
      "oody": 2994,
      "exag": 2995,
      "exist": 2996,
      "exem": 2997,
      "exper": 2998,
      "extend": 2999
    },
    "merges": [
      [
        "e",
        "n"
      ],
      [
        "a",
        "r"
      ],
      [
        "s",
        "t"
      ],
      [
        "en",
        "d"
      ],
      [
        "ar",
        "t"
      ],
      [
        "st",
        "art"
      ],
      [
        "h",
        "e"
      ],
      [
        "i",
        "n"
      ],
      [
        "o",
        "u"
      ],
      [
        "t",
        "he"
      ],
      [
        "t",
        "o"
      ],
      [
        "i",
        "s"
      ],
      [
        "h",
        "a"
      ],
      [
        "o",
        "n"
      ],
      [
        "y",
        "ou"
      ],
      [
        "r",
        "e"
      ],
      [
        "a",
        "n"
      ],
      [
        "v",
        "e"
      ],
      [
        "m",
        "e"
      ],
      [
        "i",
        "t"
      ],
      [
        "in",
        "g"
      ],
      [
        "o",
        "r"
      ],
      [
        "l",
        "e"
      ],
      [
        "l",
        "l"
      ],
      [
        "t",
        "h"
      ],
      [
        "e",
        "r"
      ],
      [
        "e",
        "d"
      ],
      [
        "a",
        "s"
      ],
      [
        "o",
        "w"
      ],
      [
        "ha",
        "t"
      ],
      [
        "a",
        "t"
      ],
      [
        "o",
        "f"
      ],
      [
        "a",
        "y"
      ],
      [
        "d",
        "o"
      ],
      [
        "k",
        "e"
      ],
      [
        "b",
        "e"
      ],
      [
        "s",
        "e"
      ],
      [
        "l",
        "i"
      ],
      [
        "w",
        "e"
      ],
      [
        "l",
        "d"
      ],
      [
        "o",
        "o"
      ],
      [
        "to",
        "m"
      ],
      [
        "ve",
        "r"
      ],
      [
        "n",
        "o"
      ],
      [
        "r",
        "i"
      ],
      [
        "d",
        "i"
      ],
      [
        "a",
        "l"
      ],
      [
        "m",
        "y"
      ],
      [
        "f",
        "or"
      ],
      [
        "t",
        "hat"
      ],
      [
        "c",
        "h"
      ],
      [
        "g",
        "o"
      ],
      [
        "w",
        "as"
      ],
      [
        "ha",
        "ve"
      ],
      [
        "r",
        "o"
      ],
      [
        "th",
        "is"
      ],
      [
        "e",
        "s"
      ],
      [
        "s",
        "he"
      ],
      [
        "a",
        "d"
      ],
      [
        "c",
        "o"
      ],
      [
        "a",
        "ll"
      ],
      [
        "on",
        "e"
      ],
      [
        "ar",
        "e"
      ],
      [
        "w",
        "h"
      ],
      [
        "w",
        "hat"
      ],
      [
        "en",
        "t"
      ],
      [
        "g",
        "e"
      ],
      [
        "c",
        "e"
      ],
      [
        "d",
        "ay"
      ],
      [
        "g",
        "h"
      ],
      [
        "n",
        "ow"
      ],
      [
        "you",
        "r"
      ],
      [
        "c",
        "an"
      ],
      [
        "t",
        "e"
      ],
      [
        "the",
        "r"
      ],
      [
        "i",
        "ll"
      ],
      [
        "d",
        "on"
      ],
      [
        "h",
        "is"
      ],
      [
        "i",
        "m"
      ],
      [
        "ou",
        "ld"
      ],
      [
        "a",
        "c"
      ],
      [
        "t",
        "i"
      ],
      [
        "n",
        "e"
      ],
      [
        "ou",
        "t"
      ],
      [
        "he",
        "r"
      ],
      [
        "an",
        "d"
      ],
      [
        "i",
        "r"
      ],
      [
        "m",
        "o"
      ],
      [
        "gh",
        "t"
      ],
      [
        "s",
        "o"
      ],
      [
        "a",
        "in"
      ],
      [
        "ver",
        "y"
      ],
      [
        "a",
        "ke"
      ],
      [
        "a",
        "b"
      ],
      [
        "u",
        "s"
      ],
      [
        "li",
        "ke"
      ],
      [
        "f",
        "e"
      ],
      [
        "w",
        "it"
      ],
      [
        "u",
        "n"
      ],
      [
        "u",
        "t"
      ],
      [
        "an",
        "t"
      ],
      [
        "wit",
        "h"
      ],
      [
        "w",
        "ill"
      ],
      [
        "no",
        "t"
      ],
      [
        "he",
        "re"
      ],
      [
        "p",
        "le"
      ],
      [
        "oo",
        "k"
      ],
      [
        "h",
        "im"
      ],
      [
        "l",
        "o"
      ],
      [
        "p",
        "e"
      ],
      [
        "s",
        "h"
      ],
      [
        "s",
        "i"
      ],
      [
        "di",
        "d"
      ],
      [
        "k",
        "now"
      ],
      [
        "l",
        "y"
      ],
      [
        "d",
        "e"
      ],
      [
        "a",
        "m"
      ],
      [
        "w",
        "or"
      ],
      [
        "t",
        "r"
      ],
      [
        "an",
        "y"
      ],
      [
        "u",
        "r"
      ],
      [
        "u",
        "p"
      ],
      [
        "h",
        "ow"
      ],
      [
        "w",
        "ant"
      ],
      [
        "f",
        "a"
      ],
      [
        "ti",
        "me"
      ],
      [
        "ha",
        "s"
      ],
      [
        "co",
        "me"
      ],
      [
        "y",
        "e"
      ],
      [
        "the",
        "re"
      ],
      [
        "b",
        "o"
      ],
      [
        "p",
        "o"
      ],
      [
        "on",
        "g"
      ],
      [
        "i",
        "on"
      ],
      [
        "a",
        "p"
      ],
      [
        "i",
        "c"
      ],
      [
        "h",
        "o"
      ],
      [
        "t",
        "er"
      ],
      [
        "th",
        "ing"
      ],
      [
        "m",
        "ar"
      ],
      [
        "k",
        "ing"
      ],
      [
        "as",
        "e"
      ],
      [
        "m",
        "u"
      ],
      [
        "p",
        "l"
      ],
      [
        "s",
        "u"
      ],
      [
        "the",
        "y"
      ],
      [
        "ha",
        "n"
      ],
      [
        "ge",
        "t"
      ],
      [
        "c",
        "a"
      ],
      [
        "oo",
        "d"
      ],
      [
        "i",
        "d"
      ],
      [
        "w",
        "ay"
      ],
      [
        "ro",
        "m"
      ],
      [
        "e",
        "x"
      ],
      [
        "u",
        "l"
      ],
      [
        "ou",
        "r"
      ],
      [
        "a",
        "g"
      ],
      [
        "b",
        "y"
      ],
      [
        "re",
        "d"
      ],
      [
        "le",
        "t"
      ],
      [
        "e",
        "very"
      ],
      [
        "is",
        "h"
      ],
      [
        "wh",
        "o"
      ],
      [
        "so",
        "me"
      ],
      [
        "ha",
        "d"
      ],
      [
        "b",
        "ook"
      ],
      [
        "s",
        "a"
      ],
      [
        "st",
        "er"
      ],
      [
        "wor",
        "k"
      ],
      [
        "f",
        "rom"
      ],
      [
        "m",
        "an"
      ],
      [
        "r",
        "ow"
      ],
      [
        "w",
        "ould"
      ],
      [
        "ou",
        "n"
      ],
      [
        "re",
        "ad"
      ],
      [
        "wh",
        "en"
      ],
      [
        "ab",
        "out"
      ],
      [
        "ple",
        "ase"
      ],
      [
        "w",
        "here"
      ],
      [
        "in",
        "k"
      ],
      [
        "i",
        "f"
      ],
      [
        "w",
        "o"
      ],
      [
        "in",
        "d"
      ],
      [
        "he",
        "l"
      ],
      [
        "se",
        "e"
      ],
      [
        "li",
        "ve"
      ],
      [
        "a",
        "ge"
      ],
      [
        "l",
        "a"
      ],
      [
        "p",
        "en"
      ],
      [
        "go",
        "ing"
      ],
      [
        "hel",
        "p"
      ],
      [
        "a",
        "f"
      ],
      [
        "d",
        "er"
      ],
      [
        "be",
        "en"
      ],
      [
        "ac",
        "k"
      ],
      [
        "did",
        "n"
      ],
      [
        "i",
        "ght"
      ],
      [
        "q",
        "u"
      ],
      [
        "t",
        "ake"
      ],
      [
        "co",
        "m"
      ],
      [
        "a",
        "ve"
      ],
      [
        "b",
        "ut"
      ],
      [
        "f",
        "o"
      ],
      [
        "l",
        "ook"
      ],
      [
        "l",
        "ong"
      ],
      [
        "r",
        "y"
      ],
      [
        "re",
        "e"
      ],
      [
        "fa",
        "ther"
      ],
      [
        "c",
        "ould"
      ],
      [
        "i",
        "ve"
      ],
      [
        "m",
        "ake"
      ],
      [
        "we",
        "re"
      ],
      [
        "ne",
        "w"
      ],
      [
        "sh",
        "ould"
      ],
      [
        "s",
        "pe"
      ],
      [
        "w",
        "at"
      ],
      [
        "in",
        "e"
      ],
      [
        "b",
        "le"
      ],
      [
        "g",
        "l"
      ],
      [
        "i",
        "le"
      ],
      [
        "u",
        "se"
      ],
      [
        "er",
        "s"
      ],
      [
        "i",
        "g"
      ],
      [
        "p",
        "ro"
      ],
      [
        "r",
        "a"
      ],
      [
        "ho",
        "me"
      ],
      [
        "c",
        "ar"
      ],
      [
        "to",
        "o"
      ],
      [
        "ha",
        "p"
      ],
      [
        "at",
        "e"
      ],
      [
        "a",
        "k"
      ],
      [
        "c",
        "on"
      ],
      [
        "d",
        "y"
      ],
      [
        "g",
        "ood"
      ],
      [
        "j",
        "o"
      ],
      [
        "m",
        "one"
      ],
      [
        "or",
        "row"
      ],
      [
        "at",
        "ion"
      ],
      [
        "all",
        "y"
      ],
      [
        "fe",
        "e"
      ],
      [
        "ur",
        "n"
      ],
      [
        "mone",
        "y"
      ],
      [
        "e",
        "p"
      ],
      [
        "t",
        "en"
      ],
      [
        "ar",
        "d"
      ],
      [
        "re",
        "s"
      ],
      [
        "th",
        "ink"
      ],
      [
        "c",
        "k"
      ],
      [
        "c",
        "t"
      ],
      [
        "t",
        "wo"
      ],
      [
        "to",
        "day"
      ],
      [
        "of",
        "f"
      ],
      [
        "ri",
        "ed"
      ],
      [
        "go",
        "t"
      ],
      [
        "b",
        "ack"
      ],
      [
        "s",
        "ay"
      ],
      [
        "in",
        "di"
      ],
      [
        "an",
        "g"
      ],
      [
        "ow",
        "n"
      ],
      [
        "tom",
        "orrow"
      ],
      [
        "i",
        "ld"
      ],
      [
        "s",
        "w"
      ],
      [
        "t",
        "han"
      ],
      [
        "u",
        "st"
      ],
      [
        "ou",
        "se"
      ],
      [
        "oo",
        "m"
      ],
      [
        "es",
        "s"
      ],
      [
        "mar",
        "y"
      ],
      [
        "indi",
        "a"
      ],
      [
        "o",
        "ther"
      ],
      [
        "r",
        "oom"
      ],
      [
        "st",
        "u"
      ],
      [
        "ou",
        "s"
      ],
      [
        "ne",
        "ver"
      ],
      [
        "mu",
        "st"
      ],
      [
        "fo",
        "re"
      ],
      [
        "f",
        "ri"
      ],
      [
        "i",
        "l"
      ],
      [
        "m",
        "ad"
      ],
      [
        "o",
        "ld"
      ],
      [
        "t",
        "al"
      ],
      [
        "t",
        "urn"
      ],
      [
        "do",
        "es"
      ],
      [
        "mu",
        "ch"
      ],
      [
        "b",
        "ro"
      ],
      [
        "c",
        "le"
      ],
      [
        "c",
        "lo"
      ],
      [
        "h",
        "ouse"
      ],
      [
        "u",
        "m"
      ],
      [
        "en",
        "gl"
      ],
      [
        "st",
        "and"
      ],
      [
        "mo",
        "re"
      ],
      [
        "ye",
        "ar"
      ],
      [
        "ye",
        "ster"
      ],
      [
        "pl",
        "ay"
      ],
      [
        "ag",
        "ain"
      ],
      [
        "la",
        "st"
      ],
      [
        "yester",
        "day"
      ],
      [
        "g",
        "ive"
      ],
      [
        "m",
        "any"
      ],
      [
        "r",
        "en"
      ],
      [
        "s",
        "p"
      ],
      [
        "t",
        "a"
      ],
      [
        "the",
        "se"
      ],
      [
        "ri",
        "ve"
      ],
      [
        "ch",
        "ild"
      ],
      [
        "te",
        "ll"
      ],
      [
        "mad",
        "e"
      ],
      [
        "engl",
        "ish"
      ],
      [
        "i",
        "ce"
      ],
      [
        "o",
        "p"
      ],
      [
        "w",
        "a"
      ],
      [
        "w",
        "r"
      ],
      [
        "re",
        "st"
      ],
      [
        "do",
        "g"
      ],
      [
        "li",
        "e"
      ],
      [
        "mo",
        "ther"
      ],
      [
        "spe",
        "ak"
      ],
      [
        "fri",
        "end"
      ],
      [
        "i",
        "st"
      ],
      [
        "m",
        "ay"
      ],
      [
        "n",
        "ing"
      ],
      [
        "n",
        "ight"
      ],
      [
        "o",
        "ple"
      ],
      [
        "u",
        "e"
      ],
      [
        "w",
        "ent"
      ],
      [
        "pe",
        "ople"
      ],
      [
        "a",
        "me"
      ],
      [
        "a",
        "ch"
      ],
      [
        "b",
        "r"
      ],
      [
        "f",
        "f"
      ],
      [
        "m",
        "on"
      ],
      [
        "ou",
        "ght"
      ],
      [
        "no",
        "thing"
      ],
      [
        "oun",
        "d"
      ],
      [
        "e",
        "ver"
      ],
      [
        "t",
        "y"
      ],
      [
        "w",
        "on"
      ],
      [
        "the",
        "m"
      ],
      [
        "to",
        "r"
      ],
      [
        "al",
        "way"
      ],
      [
        "wh",
        "y"
      ],
      [
        "ab",
        "le"
      ],
      [
        "un",
        "der"
      ],
      [
        "wat",
        "ch"
      ],
      [
        "alway",
        "s"
      ],
      [
        "b",
        "us"
      ],
      [
        "l",
        "f"
      ],
      [
        "p",
        "re"
      ],
      [
        "it",
        "e"
      ],
      [
        "le",
        "ave"
      ],
      [
        "be",
        "lie"
      ],
      [
        "tr",
        "y"
      ],
      [
        "mar",
        "ri"
      ],
      [
        "hap",
        "p"
      ],
      [
        "c",
        "all"
      ],
      [
        "d",
        "own"
      ],
      [
        "e",
        "t"
      ],
      [
        "f",
        "ul"
      ],
      [
        "p",
        "r"
      ],
      [
        "p",
        "ut"
      ],
      [
        "r",
        "ain"
      ],
      [
        "s",
        "m"
      ],
      [
        "as",
        "k"
      ],
      [
        "do",
        "or"
      ],
      [
        "be",
        "t"
      ],
      [
        "be",
        "ca"
      ],
      [
        "di",
        "ff"
      ],
      [
        "ac",
        "c"
      ],
      [
        "us",
        "ed"
      ],
      [
        "lo",
        "t"
      ],
      [
        "af",
        "ter"
      ],
      [
        "jo",
        "b"
      ],
      [
        "child",
        "ren"
      ],
      [
        "belie",
        "ve"
      ],
      [
        "c",
        "l"
      ],
      [
        "t",
        "ed"
      ],
      [
        "u",
        "re"
      ],
      [
        "v",
        "en"
      ],
      [
        "is",
        "n"
      ],
      [
        "an",
        "sw"
      ],
      [
        "or",
        "t"
      ],
      [
        "ke",
        "t"
      ],
      [
        "be",
        "fore"
      ],
      [
        "we",
        "ll"
      ],
      [
        "oo",
        "l"
      ],
      [
        "te",
        "ac"
      ],
      [
        "bo",
        "dy"
      ],
      [
        "fee",
        "l"
      ],
      [
        "wa",
        "it"
      ],
      [
        "marri",
        "age"
      ],
      [
        "teac",
        "her"
      ],
      [
        "a",
        "u"
      ],
      [
        "b",
        "ir"
      ],
      [
        "m",
        "ent"
      ],
      [
        "p",
        "ar"
      ],
      [
        "r",
        "an"
      ],
      [
        "r",
        "un"
      ],
      [
        "s",
        "ed"
      ],
      [
        "he",
        "d"
      ],
      [
        "the",
        "ir"
      ],
      [
        "it",
        "y"
      ],
      [
        "th",
        "ree"
      ],
      [
        "lo",
        "ve"
      ],
      [
        "tr",
        "ain"
      ],
      [
        "read",
        "y"
      ],
      [
        "happ",
        "y"
      ],
      [
        "b",
        "u"
      ],
      [
        "b",
        "ed"
      ],
      [
        "b",
        "ig"
      ],
      [
        "g",
        "r"
      ],
      [
        "i",
        "e"
      ],
      [
        "l",
        "ow"
      ],
      [
        "o",
        "pen"
      ],
      [
        "s",
        "ch"
      ],
      [
        "v",
        "is"
      ],
      [
        "en",
        "ce"
      ],
      [
        "in",
        "to"
      ],
      [
        "ou",
        "gh"
      ],
      [
        "le",
        "d"
      ],
      [
        "do",
        "ing"
      ],
      [
        "se",
        "lf"
      ],
      [
        "ri",
        "ght"
      ],
      [
        "under",
        "stand"
      ],
      [
        "sch",
        "ool"
      ],
      [
        "a",
        "way"
      ],
      [
        "b",
        "er"
      ],
      [
        "c",
        "tor"
      ],
      [
        "d",
        "s"
      ],
      [
        "f",
        "t"
      ],
      [
        "h",
        "ard"
      ],
      [
        "m",
        "or"
      ],
      [
        "p",
        "ic"
      ],
      [
        "x",
        "t"
      ],
      [
        "st",
        "ay"
      ],
      [
        "re",
        "ally"
      ],
      [
        "me",
        "et"
      ],
      [
        "do",
        "ctor"
      ],
      [
        "ne",
        "ed"
      ],
      [
        "could",
        "n"
      ],
      [
        "tal",
        "k"
      ],
      [
        "answ",
        "er"
      ],
      [
        "d",
        "rive"
      ],
      [
        "e",
        "st"
      ],
      [
        "e",
        "at"
      ],
      [
        "m",
        "a"
      ],
      [
        "p",
        "h"
      ],
      [
        "s",
        "s"
      ],
      [
        "t",
        "le"
      ],
      [
        "w",
        "al"
      ],
      [
        "as",
        "s"
      ],
      [
        "ne",
        "xt"
      ],
      [
        "mo",
        "st"
      ],
      [
        "so",
        "on"
      ],
      [
        "si",
        "ble"
      ],
      [
        "every",
        "one"
      ],
      [
        "ile",
        "d"
      ],
      [
        "a",
        "ir"
      ],
      [
        "c",
        "at"
      ],
      [
        "c",
        "ut"
      ],
      [
        "e",
        "ar"
      ],
      [
        "e",
        "as"
      ],
      [
        "l",
        "t"
      ],
      [
        "l",
        "it"
      ],
      [
        "v",
        "ing"
      ],
      [
        "z",
        "e"
      ],
      [
        "ar",
        "y"
      ],
      [
        "is",
        "e"
      ],
      [
        "ha",
        "ir"
      ],
      [
        "me",
        "t"
      ],
      [
        "le",
        "ft"
      ],
      [
        "ke",
        "ep"
      ],
      [
        "be",
        "g"
      ],
      [
        "wh",
        "ile"
      ],
      [
        "ent",
        "s"
      ],
      [
        "ti",
        "red"
      ],
      [
        "fe",
        "w"
      ],
      [
        "si",
        "ster"
      ],
      [
        "wor",
        "ld"
      ],
      [
        "tr",
        "ue"
      ],
      [
        "time",
        "s"
      ],
      [
        "bo",
        "y"
      ],
      [
        "po",
        "s"
      ],
      [
        "id",
        "ent"
      ],
      [
        "let",
        "ter"
      ],
      [
        "sa",
        "w"
      ],
      [
        "oun",
        "t"
      ],
      [
        "qu",
        "est"
      ],
      [
        "wat",
        "er"
      ],
      [
        "ble",
        "m"
      ],
      [
        "pro",
        "blem"
      ],
      [
        "bro",
        "ther"
      ],
      [
        "quest",
        "ion"
      ],
      [
        "b",
        "l"
      ],
      [
        "b",
        "or"
      ],
      [
        "c",
        "are"
      ],
      [
        "d",
        "r"
      ],
      [
        "e",
        "m"
      ],
      [
        "g",
        "ir"
      ],
      [
        "i",
        "de"
      ],
      [
        "j",
        "ap"
      ],
      [
        "l",
        "ar"
      ],
      [
        "m",
        "ind"
      ],
      [
        "s",
        "mo"
      ],
      [
        "st",
        "e"
      ],
      [
        "le",
        "ep"
      ],
      [
        "se",
        "en"
      ],
      [
        "di",
        "c"
      ],
      [
        "lo",
        "st"
      ],
      [
        "ye",
        "t"
      ],
      [
        "pl",
        "ain"
      ],
      [
        "ul",
        "t"
      ],
      [
        "some",
        "thing"
      ],
      [
        "look",
        "ing"
      ],
      [
        "stu",
        "dy"
      ],
      [
        "does",
        "n"
      ],
      [
        "friend",
        "s"
      ],
      [
        "beca",
        "use"
      ],
      [
        "gir",
        "l"
      ],
      [
        "jap",
        "an"
      ],
      [
        "c",
        "al"
      ],
      [
        "c",
        "ket"
      ],
      [
        "d",
        "is"
      ],
      [
        "d",
        "res"
      ],
      [
        "e",
        "k"
      ],
      [
        "f",
        "in"
      ],
      [
        "g",
        "er"
      ],
      [
        "i",
        "es"
      ],
      [
        "i",
        "ous"
      ],
      [
        "m",
        "ist"
      ],
      [
        "n",
        "er"
      ],
      [
        "p",
        "er"
      ],
      [
        "r",
        "u"
      ],
      [
        "s",
        "it"
      ],
      [
        "t",
        "end"
      ],
      [
        "u",
        "ght"
      ],
      [
        "u",
        "ally"
      ],
      [
        "ar",
        "s"
      ],
      [
        "to",
        "ld"
      ],
      [
        "on",
        "ce"
      ],
      [
        "it",
        "al"
      ],
      [
        "al",
        "th"
      ],
      [
        "day",
        "s"
      ],
      [
        "te",
        "a"
      ],
      [
        "ir",
        "st"
      ],
      [
        "with",
        "out"
      ],
      [
        "sh",
        "ow"
      ],
      [
        "su",
        "ch"
      ],
      [
        "ca",
        "me"
      ],
      [
        "our",
        "s"
      ],
      [
        "book",
        "s"
      ],
      [
        "sa",
        "id"
      ],
      [
        "af",
        "ra"
      ],
      [
        "com",
        "ing"
      ],
      [
        "hap",
        "pen"
      ],
      [
        "wr",
        "ong"
      ],
      [
        "lit",
        "tle"
      ],
      [
        "afra",
        "id"
      ],
      [
        "b",
        "ought"
      ],
      [
        "c",
        "of"
      ],
      [
        "c",
        "han"
      ],
      [
        "e",
        "le"
      ],
      [
        "f",
        "i"
      ],
      [
        "i",
        "ly"
      ],
      [
        "k",
        "y"
      ],
      [
        "n",
        "ame"
      ],
      [
        "p",
        "t"
      ],
      [
        "p",
        "art"
      ],
      [
        "p",
        "ort"
      ],
      [
        "s",
        "leep"
      ],
      [
        "y",
        "es"
      ],
      [
        "he",
        "ad"
      ],
      [
        "in",
        "te"
      ],
      [
        "is",
        "ed"
      ],
      [
        "or",
        "y"
      ],
      [
        "li",
        "fe"
      ],
      [
        "we",
        "ek"
      ],
      [
        "al",
        "ready"
      ],
      [
        "ro",
        "ad"
      ],
      [
        "co",
        "ld"
      ],
      [
        "sh",
        "o"
      ],
      [
        "si",
        "x"
      ],
      [
        "want",
        "ed"
      ],
      [
        "bo",
        "th"
      ],
      [
        "po",
        "li"
      ],
      [
        "look",
        "ed"
      ],
      [
        "say",
        "ing"
      ],
      [
        "clo",
        "ck"
      ],
      [
        "mon",
        "th"
      ],
      [
        "diff",
        "er"
      ],
      [
        "ph",
        "one"
      ],
      [
        "wal",
        "k"
      ],
      [
        "pos",
        "sible"
      ],
      [
        "dr",
        "ink"
      ],
      [
        "mist",
        "ake"
      ],
      [
        "cof",
        "fee"
      ],
      [
        "inte",
        "rest"
      ],
      [
        "a",
        "th"
      ],
      [
        "c",
        "c"
      ],
      [
        "c",
        "he"
      ],
      [
        "d",
        "d"
      ],
      [
        "f",
        "un"
      ],
      [
        "f",
        "am"
      ],
      [
        "f",
        "ood"
      ],
      [
        "g",
        "ave"
      ],
      [
        "j",
        "ust"
      ],
      [
        "l",
        "ang"
      ],
      [
        "m",
        "en"
      ],
      [
        "m",
        "it"
      ],
      [
        "m",
        "at"
      ],
      [
        "n",
        "ess"
      ],
      [
        "p",
        "ers"
      ],
      [
        "s",
        "in"
      ],
      [
        "s",
        "ing"
      ],
      [
        "s",
        "un"
      ],
      [
        "t",
        "ing"
      ],
      [
        "t",
        "ried"
      ],
      [
        "w",
        "ind"
      ],
      [
        "ar",
        "ound"
      ],
      [
        "st",
        "o"
      ],
      [
        "st",
        "op"
      ],
      [
        "he",
        "alth"
      ],
      [
        "to",
        "w"
      ],
      [
        "an",
        "ce"
      ],
      [
        "ve",
        "d"
      ],
      [
        "le",
        "ar"
      ],
      [
        "ri",
        "ver"
      ],
      [
        "di",
        "ed"
      ],
      [
        "al",
        "one"
      ],
      [
        "co",
        "l"
      ],
      [
        "te",
        "le"
      ],
      [
        "like",
        "s"
      ],
      [
        "ap",
        "ple"
      ],
      [
        "han",
        "d"
      ],
      [
        "ex",
        "am"
      ],
      [
        "tal",
        "king"
      ],
      [
        "year",
        "s"
      ],
      [
        "mor",
        "ning"
      ],
      [
        "pic",
        "t"
      ],
      [
        "ear",
        "ly"
      ],
      [
        "eas",
        "y"
      ],
      [
        "dres",
        "s"
      ],
      [
        "poli",
        "ce"
      ],
      [
        "lang",
        "u"
      ],
      [
        "pers",
        "on"
      ],
      [
        ".",
        "\""
      ],
      [
        "b",
        "re"
      ],
      [
        "b",
        "it"
      ],
      [
        "b",
        "ad"
      ],
      [
        "b",
        "all"
      ],
      [
        "d",
        "ing"
      ],
      [
        "d",
        "one"
      ],
      [
        "f",
        "ly"
      ],
      [
        "f",
        "irst"
      ],
      [
        "g",
        "s"
      ],
      [
        "g",
        "u"
      ],
      [
        "g",
        "re"
      ],
      [
        "h",
        "ur"
      ],
      [
        "h",
        "ours"
      ],
      [
        "m",
        "s"
      ],
      [
        "p",
        "ul"
      ],
      [
        "s",
        "ent"
      ],
      [
        "t",
        "v"
      ],
      [
        "y",
        "cle"
      ],
      [
        "ar",
        "rive"
      ],
      [
        "st",
        "r"
      ],
      [
        "st",
        "ation"
      ],
      [
        "an",
        "other"
      ],
      [
        "th",
        "day"
      ],
      [
        "we",
        "en"
      ],
      [
        "no",
        "on"
      ],
      [
        "al",
        "most"
      ],
      [
        "us",
        "ually"
      ],
      [
        "si",
        "de"
      ],
      [
        "know",
        "s"
      ],
      [
        "any",
        "thing"
      ],
      [
        "want",
        "s"
      ],
      [
        "come",
        "s"
      ],
      [
        "po",
        "in"
      ],
      [
        "ic",
        "ycle"
      ],
      [
        "pl",
        "an"
      ],
      [
        "ca",
        "ught"
      ],
      [
        "new",
        "s"
      ],
      [
        "sw",
        "im"
      ],
      [
        "ask",
        "ed"
      ],
      [
        "bet",
        "ween"
      ],
      [
        "acc",
        "ident"
      ],
      [
        "bir",
        "thday"
      ],
      [
        "run",
        "ning"
      ],
      [
        "bu",
        "y"
      ],
      [
        "lar",
        "ge"
      ],
      [
        "smo",
        "king"
      ],
      [
        "part",
        "y"
      ],
      [
        "0",
        "0"
      ],
      [
        "a",
        "st"
      ],
      [
        "b",
        "ab"
      ],
      [
        "b",
        "icycle"
      ],
      [
        "c",
        "re"
      ],
      [
        "c",
        "ity"
      ],
      [
        "d",
        "u"
      ],
      [
        "d",
        "es"
      ],
      [
        "e",
        "yes"
      ],
      [
        "f",
        "ive"
      ],
      [
        "f",
        "ound"
      ],
      [
        "k",
        "ind"
      ],
      [
        "l",
        "at"
      ],
      [
        "p",
        "on"
      ],
      [
        "p",
        "ri"
      ],
      [
        "p",
        "rom"
      ],
      [
        "s",
        "ha"
      ],
      [
        "s",
        "ur"
      ],
      [
        "s",
        "up"
      ],
      [
        "w",
        "i"
      ],
      [
        "in",
        "s"
      ],
      [
        "on",
        "ly"
      ],
      [
        "ve",
        "s"
      ],
      [
        "me",
        "r"
      ],
      [
        "me",
        "dic"
      ],
      [
        "ll",
        "ow"
      ],
      [
        "li",
        "st"
      ],
      [
        "no",
        "body"
      ],
      [
        "ri",
        "es"
      ],
      [
        "for",
        "got"
      ],
      [
        "can",
        "not"
      ],
      [
        "ti",
        "on"
      ],
      [
        "ab",
        "road"
      ],
      [
        "fe",
        "lt"
      ],
      [
        "de",
        "c"
      ],
      [
        "any",
        "one"
      ],
      [
        "fa",
        "iled"
      ],
      [
        "bo",
        "x"
      ],
      [
        "ic",
        "ult"
      ],
      [
        "ho",
        "t"
      ],
      [
        "thing",
        "s"
      ],
      [
        "mar",
        "ried"
      ],
      [
        "fo",
        "llow"
      ],
      [
        "too",
        "k"
      ],
      [
        "con",
        "t"
      ],
      [
        "ang",
        "er"
      ],
      [
        "bro",
        "ke"
      ],
      [
        "watch",
        "ing"
      ],
      [
        "sm",
        "all"
      ],
      [
        "diff",
        "icult"
      ],
      [
        "wait",
        "ing"
      ],
      [
        "bor",
        "n"
      ],
      [
        "happen",
        "ed"
      ],
      [
        "sho",
        "es"
      ],
      [
        "tow",
        "n"
      ],
      [
        "lear",
        "n"
      ],
      [
        "medic",
        "ine"
      ],
      [
        "a",
        "ther"
      ],
      [
        "b",
        "ag"
      ],
      [
        "c",
        "ed"
      ],
      [
        "c",
        "es"
      ],
      [
        "c",
        "ook"
      ],
      [
        "c",
        "oun"
      ],
      [
        "c",
        "ry"
      ],
      [
        "d",
        "in"
      ],
      [
        "d",
        "anger"
      ],
      [
        "e",
        "ight"
      ],
      [
        "f",
        "ish"
      ],
      [
        "h",
        "un"
      ],
      [
        "k",
        "en"
      ],
      [
        "k",
        "new"
      ],
      [
        "l",
        "ate"
      ],
      [
        "m",
        "is"
      ],
      [
        "m",
        "us"
      ],
      [
        "m",
        "ine"
      ],
      [
        "n",
        "ice"
      ],
      [
        "o",
        "b"
      ],
      [
        "o",
        "ver"
      ],
      [
        "p",
        "ed"
      ],
      [
        "p",
        "ow"
      ],
      [
        "r",
        "ough"
      ],
      [
        "s",
        "or"
      ],
      [
        "s",
        "low"
      ],
      [
        "v",
        "o"
      ],
      [
        "en",
        "ough"
      ],
      [
        "st",
        "ill"
      ],
      [
        "he",
        "ar"
      ],
      [
        "is",
        "hed"
      ],
      [
        "th",
        "rough"
      ],
      [
        "at",
        "ed"
      ],
      [
        "be",
        "au"
      ],
      [
        "se",
        "s"
      ],
      [
        "ri",
        "ca"
      ],
      [
        "di",
        "e"
      ],
      [
        "ro",
        "ss"
      ],
      [
        "all",
        "ow"
      ],
      [
        "ti",
        "ful"
      ],
      [
        "mo",
        "v"
      ],
      [
        "de",
        "p"
      ],
      [
        "su",
        "re"
      ],
      [
        "su",
        "dd"
      ],
      [
        "ex",
        "plain"
      ],
      [
        "some",
        "one"
      ],
      [
        "read",
        "ing"
      ],
      [
        "qu",
        "it"
      ],
      [
        "com",
        "p"
      ],
      [
        "cle",
        "an"
      ],
      [
        "bus",
        "y"
      ],
      [
        "bet",
        "ter"
      ],
      [
        "after",
        "noon"
      ],
      [
        "cl",
        "ass"
      ],
      [
        "par",
        "ents"
      ],
      [
        "question",
        "s"
      ],
      [
        "ide",
        "a"
      ],
      [
        "mistake",
        "s"
      ],
      [
        "sin",
        "ce"
      ],
      [
        "hur",
        "ry"
      ],
      [
        "bab",
        "y"
      ],
      [
        "sur",
        "pr"
      ],
      [
        "coun",
        "try"
      ],
      [
        "din",
        "ner"
      ],
      [
        "mus",
        "ic"
      ],
      [
        "beau",
        "tiful"
      ],
      [
        "sudd",
        "en"
      ],
      [
        "a",
        "ce"
      ],
      [
        "c",
        "or"
      ],
      [
        "c",
        "er"
      ],
      [
        "c",
        "up"
      ],
      [
        "c",
        "ap"
      ],
      [
        "d",
        "re"
      ],
      [
        "e",
        "ach"
      ],
      [
        "f",
        "u"
      ],
      [
        "g",
        "ar"
      ],
      [
        "g",
        "ing"
      ],
      [
        "h",
        "or"
      ],
      [
        "i",
        "gh"
      ],
      [
        "m",
        "in"
      ],
      [
        "p",
        "i"
      ],
      [
        "p",
        "res"
      ],
      [
        "s",
        "c"
      ],
      [
        "s",
        "po"
      ],
      [
        "w",
        "ar"
      ],
      [
        "w",
        "he"
      ],
      [
        "w",
        "ish"
      ],
      [
        "x",
        "ious"
      ],
      [
        "st",
        "ory"
      ],
      [
        "he",
        "ard"
      ],
      [
        "in",
        "ess"
      ],
      [
        "ha",
        "ven"
      ],
      [
        "re",
        "turn"
      ],
      [
        "an",
        "xious"
      ],
      [
        "me",
        "d"
      ],
      [
        "it",
        "ten"
      ],
      [
        "ll",
        "y"
      ],
      [
        "ke",
        "y"
      ],
      [
        "ke",
        "pt"
      ],
      [
        "we",
        "l"
      ],
      [
        "no",
        "ise"
      ],
      [
        "di",
        "st"
      ],
      [
        "al",
        "s"
      ],
      [
        "al",
        "ong"
      ],
      [
        "for",
        "get"
      ],
      [
        "ad",
        "v"
      ],
      [
        "te",
        "ach"
      ],
      [
        "ac",
        "t"
      ],
      [
        "mo",
        "ve"
      ],
      [
        "so",
        "l"
      ],
      [
        "si",
        "ck"
      ],
      [
        "ap",
        "poin"
      ],
      [
        "ic",
        "k"
      ],
      [
        "su",
        "gar"
      ],
      [
        "ex",
        "c"
      ],
      [
        "ex",
        "pen"
      ],
      [
        "every",
        "thing"
      ],
      [
        "work",
        "s"
      ],
      [
        "would",
        "n"
      ],
      [
        "live",
        "s"
      ],
      [
        "than",
        "k"
      ],
      [
        "other",
        "s"
      ],
      [
        "stu",
        "d"
      ],
      [
        "wr",
        "itten"
      ],
      [
        "br",
        "ing"
      ],
      [
        "mon",
        "day"
      ],
      [
        "won",
        "der"
      ],
      [
        "beca",
        "me"
      ],
      [
        "gr",
        "and"
      ],
      [
        "vis",
        "it"
      ],
      [
        "fi",
        "re"
      ],
      [
        "differ",
        "ence"
      ],
      [
        "mat",
        "ter"
      ],
      [
        "wind",
        "ow"
      ],
      [
        "pict",
        "ure"
      ],
      [
        "langu",
        "age"
      ],
      [
        "des",
        "k"
      ],
      [
        "lat",
        "er"
      ],
      [
        "pow",
        "er"
      ],
      [
        "sor",
        "ry"
      ],
      [
        "slow",
        "ly"
      ],
      [
        "dep",
        "end"
      ],
      [
        "surpr",
        "ised"
      ],
      [
        "a",
        "ut"
      ],
      [
        "a",
        "ust"
      ],
      [
        "b",
        "t"
      ],
      [
        "b",
        "an"
      ],
      [
        "c",
        "ri"
      ],
      [
        "c",
        "ase"
      ],
      [
        "c",
        "ess"
      ],
      [
        "c",
        "hair"
      ],
      [
        "e",
        "g"
      ],
      [
        "e",
        "art"
      ],
      [
        "f",
        "ar"
      ],
      [
        "f",
        "all"
      ],
      [
        "f",
        "ind"
      ],
      [
        "f",
        "ree"
      ],
      [
        "f",
        "low"
      ],
      [
        "g",
        "n"
      ],
      [
        "h",
        "ar"
      ],
      [
        "h",
        "ind"
      ],
      [
        "i",
        "ch"
      ],
      [
        "j",
        "e"
      ],
      [
        "j",
        "u"
      ],
      [
        "j",
        "um"
      ],
      [
        "m",
        "ight"
      ],
      [
        "m",
        "ach"
      ],
      [
        "m",
        "mer"
      ],
      [
        "n",
        "is"
      ],
      [
        "o",
        "se"
      ],
      [
        "r",
        "um"
      ],
      [
        "s",
        "on"
      ],
      [
        "s",
        "er"
      ],
      [
        "s",
        "at"
      ],
      [
        "s",
        "we"
      ],
      [
        "t",
        "re"
      ],
      [
        "v",
        "ill"
      ],
      [
        "en",
        "g"
      ],
      [
        "ar",
        "rest"
      ],
      [
        "st",
        "ood"
      ],
      [
        "in",
        "ion"
      ],
      [
        "in",
        "king"
      ],
      [
        "in",
        "ste"
      ],
      [
        "ou",
        "ble"
      ],
      [
        "the",
        "s"
      ],
      [
        "is",
        "on"
      ],
      [
        "le",
        "ss"
      ],
      [
        "as",
        "on"
      ],
      [
        "do",
        "ll"
      ],
      [
        "be",
        "st"
      ],
      [
        "be",
        "hind"
      ],
      [
        "se",
        "t"
      ],
      [
        "li",
        "a"
      ],
      [
        "li",
        "ght"
      ],
      [
        "we",
        "ather"
      ],
      [
        "ri",
        "d"
      ],
      [
        "ri",
        "ch"
      ],
      [
        "was",
        "h"
      ],
      [
        "ro",
        "pe"
      ],
      [
        "ad",
        "vis"
      ],
      [
        "ad",
        "dress"
      ],
      [
        "wh",
        "ich"
      ],
      [
        "your",
        "s"
      ],
      [
        "ti",
        "cket"
      ],
      [
        "out",
        "side"
      ],
      [
        "fe",
        "ver"
      ],
      [
        "ut",
        "es"
      ],
      [
        "pe",
        "ct"
      ],
      [
        "si",
        "ve"
      ],
      [
        "si",
        "ze"
      ],
      [
        "tr",
        "u"
      ],
      [
        "tr",
        "ouble"
      ],
      [
        "fa",
        "st"
      ],
      [
        "po",
        "or"
      ],
      [
        "su",
        "mmer"
      ],
      [
        "get",
        "ting"
      ],
      [
        "ex",
        "pect"
      ],
      [
        "ag",
        "es"
      ],
      [
        "every",
        "body"
      ],
      [
        "sa",
        "ved"
      ],
      [
        "where",
        "ver"
      ],
      [
        "qu",
        "ick"
      ],
      [
        "com",
        "plain"
      ],
      [
        "look",
        "s"
      ],
      [
        "long",
        "er"
      ],
      [
        "make",
        "s"
      ],
      [
        "should",
        "n"
      ],
      [
        "ra",
        "lia"
      ],
      [
        "home",
        "work"
      ],
      [
        "ten",
        "nis"
      ],
      [
        "res",
        "pon"
      ],
      [
        "ct",
        "ed"
      ],
      [
        "clo",
        "thes"
      ],
      [
        "stand",
        "ing"
      ],
      [
        "play",
        "ing"
      ],
      [
        "again",
        "st"
      ],
      [
        "ta",
        "x"
      ],
      [
        "op",
        "inion"
      ],
      [
        "wr",
        "ite"
      ],
      [
        "pre",
        "t"
      ],
      [
        "au",
        "ght"
      ],
      [
        "bir",
        "ds"
      ],
      [
        "ran",
        "ge"
      ],
      [
        "pic",
        "k"
      ],
      [
        "talk",
        "s"
      ],
      [
        "ma",
        "king"
      ],
      [
        "boy",
        "s"
      ],
      [
        "bl",
        "ack"
      ],
      [
        "em",
        "p"
      ],
      [
        "dis",
        "appoin"
      ],
      [
        "ru",
        "le"
      ],
      [
        "show",
        "ed"
      ],
      [
        "ky",
        "o"
      ],
      [
        "interest",
        "ing"
      ],
      [
        "fam",
        "ily"
      ],
      [
        "sun",
        "day"
      ],
      [
        "tele",
        "phone"
      ],
      [
        "wi",
        "fe"
      ],
      [
        "list",
        "en"
      ],
      [
        "sudden",
        "ly"
      ],
      [
        "fu",
        "lly"
      ],
      [
        "min",
        "utes"
      ],
      [
        "whe",
        "ther"
      ],
      [
        "expen",
        "sive"
      ],
      [
        "aust",
        "ralia"
      ],
      [
        "ban",
        "k"
      ],
      [
        "eg",
        "gs"
      ],
      [
        "eart",
        "h"
      ],
      [
        "flow",
        "ers"
      ],
      [
        "rum",
        "or"
      ],
      [
        "vill",
        "age"
      ],
      [
        "inste",
        "ad"
      ],
      [
        "1",
        "9"
      ],
      [
        "?",
        "\""
      ],
      [
        "a",
        "the"
      ],
      [
        "b",
        "ase"
      ],
      [
        "b",
        "by"
      ],
      [
        "b",
        "ath"
      ],
      [
        "c",
        "ent"
      ],
      [
        "c",
        "ried"
      ],
      [
        "c",
        "ount"
      ],
      [
        "d",
        "aught"
      ],
      [
        "e",
        "u"
      ],
      [
        "e",
        "ven"
      ],
      [
        "f",
        "re"
      ],
      [
        "f",
        "er"
      ],
      [
        "f",
        "oo"
      ],
      [
        "f",
        "if"
      ],
      [
        "f",
        "ren"
      ],
      [
        "g",
        "row"
      ],
      [
        "i",
        "p"
      ],
      [
        "l",
        "on"
      ],
      [
        "l",
        "ake"
      ],
      [
        "m",
        "ain"
      ],
      [
        "m",
        "ur"
      ],
      [
        "m",
        "ber"
      ],
      [
        "m",
        "ount"
      ],
      [
        "n",
        "um"
      ],
      [
        "o",
        "cc"
      ],
      [
        "p",
        "as"
      ],
      [
        "p",
        "at"
      ],
      [
        "p",
        "ay"
      ],
      [
        "p",
        "ain"
      ],
      [
        "p",
        "ie"
      ],
      [
        "p",
        "ass"
      ],
      [
        "r",
        "at"
      ],
      [
        "s",
        "ow"
      ],
      [
        "s",
        "now"
      ],
      [
        "s",
        "ky"
      ],
      [
        "t",
        "ent"
      ],
      [
        "u",
        "g"
      ],
      [
        "u",
        "te"
      ],
      [
        "u",
        "res"
      ],
      [
        "v",
        "or"
      ],
      [
        "v",
        "ent"
      ],
      [
        "w",
        "in"
      ],
      [
        "w",
        "ood"
      ],
      [
        "y",
        "ed"
      ],
      [
        "z",
        "en"
      ],
      [
        "z",
        "ed"
      ],
      [
        "ar",
        "en"
      ],
      [
        "ar",
        "ro"
      ],
      [
        "st",
        "s"
      ],
      [
        "st",
        "ree"
      ],
      [
        "st",
        "range"
      ],
      [
        "he",
        "at"
      ],
      [
        "in",
        "ve"
      ],
      [
        "ou",
        "d"
      ],
      [
        "to",
        "kyo"
      ],
      [
        "ha",
        "ving"
      ],
      [
        "re",
        "a"
      ],
      [
        "re",
        "ap"
      ],
      [
        "re",
        "su"
      ],
      [
        "an",
        "im"
      ],
      [
        "ve",
        "red"
      ],
      [
        "me",
        "s"
      ],
      [
        "me",
        "mor"
      ],
      [
        "me",
        "mber"
      ],
      [
        "th",
        "en"
      ],
      [
        "th",
        "ie"
      ],
      [
        "th",
        "inking"
      ],
      [
        "at",
        "tend"
      ],
      [
        "be",
        "ing"
      ],
      [
        "ver",
        "n"
      ],
      [
        "go",
        "vern"
      ],
      [
        "co",
        "st"
      ],
      [
        "co",
        "vered"
      ],
      [
        "your",
        "self"
      ],
      [
        "te",
        "e"
      ],
      [
        "te",
        "m"
      ],
      [
        "im",
        "port"
      ],
      [
        "ac",
        "ross"
      ],
      [
        "ne",
        "ar"
      ],
      [
        "ne",
        "cess"
      ],
      [
        "ir",
        "t"
      ],
      [
        "fe",
        "ll"
      ],
      [
        "lo",
        "se"
      ],
      [
        "sh",
        "out"
      ],
      [
        "sh",
        "ip"
      ],
      [
        "sh",
        "irt"
      ],
      [
        "si",
        "l"
      ],
      [
        "know",
        "n"
      ],
      [
        "wor",
        "king"
      ],
      [
        "tr",
        "ust"
      ],
      [
        "any",
        "more"
      ],
      [
        "any",
        "body"
      ],
      [
        "fa",
        "ce"
      ],
      [
        "fa",
        "ult"
      ],
      [
        "fa",
        "vor"
      ],
      [
        "has",
        "n"
      ],
      [
        "there",
        "d"
      ],
      [
        "po",
        "pul"
      ],
      [
        "ho",
        "sp"
      ],
      [
        "ho",
        "bby"
      ],
      [
        "han",
        "ds"
      ],
      [
        "id",
        "ed"
      ],
      [
        "ag",
        "ree"
      ],
      [
        "who",
        "ever"
      ],
      [
        "wo",
        "men"
      ],
      [
        "see",
        "ms"
      ],
      [
        "live",
        "d"
      ],
      [
        "ation",
        "s"
      ],
      [
        "off",
        "ice"
      ],
      [
        "ang",
        "ry"
      ],
      [
        "old",
        "er"
      ],
      [
        "cle",
        "ar"
      ],
      [
        "clo",
        "sed"
      ],
      [
        "sp",
        "end"
      ],
      [
        "ta",
        "king"
      ],
      [
        "dog",
        "s"
      ],
      [
        "br",
        "ought"
      ],
      [
        "bus",
        "iness"
      ],
      [
        "pr",
        "ison"
      ],
      [
        "rain",
        "s"
      ],
      [
        "rain",
        "ing"
      ],
      [
        "sm",
        "iled"
      ],
      [
        "feel",
        "ing"
      ],
      [
        "vis",
        "ion"
      ],
      [
        "stay",
        "ed"
      ],
      [
        "eat",
        "ing"
      ],
      [
        "beg",
        "an"
      ],
      [
        "beg",
        "ins"
      ],
      [
        "bl",
        "ue"
      ],
      [
        "study",
        "ing"
      ],
      [
        "cal",
        "led"
      ],
      [
        "fin",
        "ish"
      ],
      [
        "fin",
        "ished"
      ],
      [
        "tend",
        "s"
      ],
      [
        "interest",
        "ed"
      ],
      [
        "col",
        "le"
      ],
      [
        "tele",
        "vision"
      ],
      [
        "apple",
        "s"
      ],
      [
        "bre",
        "ak"
      ],
      [
        "str",
        "ong"
      ],
      [
        "dec",
        "ided"
      ],
      [
        "cry",
        "ing"
      ],
      [
        "mov",
        "ie"
      ],
      [
        "cap",
        "ital"
      ],
      [
        "dre",
        "am"
      ],
      [
        "hor",
        "se"
      ],
      [
        "pres",
        "ent"
      ],
      [
        "exc",
        "use"
      ],
      [
        "grand",
        "mother"
      ],
      [
        "arrest",
        "ed"
      ],
      [
        "tru",
        "th"
      ],
      [
        "quick",
        "ly"
      ],
      [
        "disappoin",
        "ted"
      ],
      [
        "base",
        "ball"
      ],
      [
        "eu",
        "rope"
      ],
      [
        "foo",
        "t"
      ],
      [
        "fren",
        "ch"
      ],
      [
        "lon",
        "don"
      ],
      [
        "mount",
        "ain"
      ],
      [
        "num",
        "ber"
      ],
      [
        "arro",
        "g"
      ],
      [
        "stree",
        "t"
      ],
      [
        "inve",
        "st"
      ],
      [
        "resu",
        "lt"
      ],
      [
        "necess",
        "ary"
      ],
      [
        "hosp",
        "ital"
      ],
      [
        "1",
        "0"
      ],
      [
        "a",
        "w"
      ],
      [
        "a",
        "king"
      ],
      [
        "b",
        "and"
      ],
      [
        "b",
        "urn"
      ],
      [
        "b",
        "rid"
      ],
      [
        "c",
        "r"
      ],
      [
        "c",
        "y"
      ],
      [
        "c",
        "li"
      ],
      [
        "c",
        "ake"
      ],
      [
        "c",
        "ur"
      ],
      [
        "c",
        "row"
      ],
      [
        "c",
        "il"
      ],
      [
        "d",
        "ou"
      ],
      [
        "e",
        "l"
      ],
      [
        "e",
        "se"
      ],
      [
        "f",
        "at"
      ],
      [
        "f",
        "ut"
      ],
      [
        "f",
        "our"
      ],
      [
        "f",
        "ran"
      ],
      [
        "g",
        "y"
      ],
      [
        "g",
        "ed"
      ],
      [
        "g",
        "ent"
      ],
      [
        "g",
        "ry"
      ],
      [
        "g",
        "ame"
      ],
      [
        "h",
        "us"
      ],
      [
        "h",
        "ist"
      ],
      [
        "i",
        "ent"
      ],
      [
        "k",
        "id"
      ],
      [
        "k",
        "il"
      ],
      [
        "l",
        "u"
      ],
      [
        "m",
        "ing"
      ],
      [
        "m",
        "ap"
      ],
      [
        "m",
        "ile"
      ],
      [
        "m",
        "il"
      ],
      [
        "n",
        "ine"
      ],
      [
        "p",
        "ted"
      ],
      [
        "s",
        "me"
      ],
      [
        "s",
        "im"
      ],
      [
        "t",
        "u"
      ],
      [
        "t",
        "ain"
      ],
      [
        "t",
        "able"
      ],
      [
        "u",
        "b"
      ],
      [
        "u",
        "ed"
      ],
      [
        "v",
        "al"
      ],
      [
        "w",
        "ed"
      ],
      [
        "ar",
        "ing"
      ],
      [
        "st",
        "on"
      ],
      [
        "st",
        "ri"
      ],
      [
        "st",
        "ate"
      ],
      [
        "start",
        "ed"
      ],
      [
        "he",
        "s"
      ],
      [
        "he",
        "sit"
      ],
      [
        "in",
        "a"
      ],
      [
        "in",
        "v"
      ],
      [
        "in",
        "ter"
      ],
      [
        "to",
        "wel"
      ],
      [
        "ha",
        "le"
      ],
      [
        "on",
        "d"
      ],
      [
        "you",
        "n"
      ],
      [
        "re",
        "ct"
      ],
      [
        "re",
        "ason"
      ],
      [
        "re",
        "main"
      ],
      [
        "re",
        "member"
      ],
      [
        "an",
        "don"
      ],
      [
        "ve",
        "l"
      ],
      [
        "it",
        "s"
      ],
      [
        "it",
        "ar"
      ],
      [
        "or",
        "der"
      ],
      [
        "le",
        "r"
      ],
      [
        "le",
        "ast"
      ],
      [
        "th",
        "ir"
      ],
      [
        "th",
        "row"
      ],
      [
        "th",
        "ought"
      ],
      [
        "th",
        "ose"
      ],
      [
        "as",
        "h"
      ],
      [
        "as",
        "ed"
      ],
      [
        "of",
        "ten"
      ],
      [
        "be",
        "aut"
      ],
      [
        "se",
        "l"
      ],
      [
        "se",
        "cre"
      ],
      [
        "no",
        "vel"
      ],
      [
        "ri",
        "l"
      ],
      [
        "my",
        "self"
      ],
      [
        "ch",
        "ina"
      ],
      [
        "go",
        "d"
      ],
      [
        "go",
        "es"
      ],
      [
        "ad",
        "a"
      ],
      [
        "ce",
        "ive"
      ],
      [
        "can",
        "ada"
      ],
      [
        "te",
        "am"
      ],
      [
        "ne",
        "igh"
      ],
      [
        "ir",
        "on"
      ],
      [
        "mo",
        "te"
      ],
      [
        "so",
        "ld"
      ],
      [
        "ab",
        "andon"
      ],
      [
        "us",
        "h"
      ],
      [
        "un",
        "cle"
      ],
      [
        "sh",
        "op"
      ],
      [
        "si",
        "ght"
      ],
      [
        "de",
        "st"
      ],
      [
        "de",
        "ad"
      ],
      [
        "de",
        "red"
      ],
      [
        "de",
        "ath"
      ],
      [
        "am",
        "ate"
      ],
      [
        "wor",
        "ry"
      ],
      [
        "tr",
        "ave"
      ],
      [
        "po",
        "sed"
      ],
      [
        "ap",
        "er"
      ],
      [
        "ap",
        "pe"
      ],
      [
        "ap",
        "ril"
      ],
      [
        "ho",
        "pe"
      ],
      [
        "mar",
        "ket"
      ],
      [
        "pl",
        "ant"
      ],
      [
        "pl",
        "ace"
      ],
      [
        "su",
        "b"
      ],
      [
        "su",
        "it"
      ],
      [
        "su",
        "cc"
      ],
      [
        "ex",
        "ce"
      ],
      [
        "who",
        "le"
      ],
      [
        "who",
        "se"
      ],
      [
        "sa",
        "fe"
      ],
      [
        "work",
        "ed"
      ],
      [
        "wo",
        "man"
      ],
      [
        "la",
        "ug"
      ],
      [
        "pen",
        "cil"
      ],
      [
        "af",
        "rica"
      ],
      [
        "com",
        "mit"
      ],
      [
        "spe",
        "aking"
      ],
      [
        "ig",
        "n"
      ],
      [
        "pro",
        "te"
      ],
      [
        "ra",
        "ther"
      ],
      [
        "car",
        "s"
      ],
      [
        "jo",
        "g"
      ],
      [
        "jo",
        "in"
      ],
      [
        "ck",
        "ed"
      ],
      [
        "stu",
        "died"
      ],
      [
        "bro",
        "ken"
      ],
      [
        "play",
        "er"
      ],
      [
        "speak",
        "s"
      ],
      [
        "ame",
        "rica"
      ],
      [
        "pre",
        "fer"
      ],
      [
        "believe",
        "s"
      ],
      [
        "big",
        "ger"
      ],
      [
        "meet",
        "ing"
      ],
      [
        "air",
        "port"
      ],
      [
        "cat",
        "s"
      ],
      [
        "cat",
        "ch"
      ],
      [
        "eas",
        "ily"
      ],
      [
        "sister",
        "s"
      ],
      [
        "lar",
        "ger"
      ],
      [
        "chan",
        "ging"
      ],
      [
        "fam",
        "ous"
      ],
      [
        "pict",
        "ures"
      ],
      [
        "police",
        "man"
      ],
      [
        "langu",
        "ages"
      ],
      [
        "gu",
        "itar"
      ],
      [
        "gre",
        "at"
      ],
      [
        "arrive",
        "d"
      ],
      [
        "plan",
        "e"
      ],
      [
        "prom",
        "ise"
      ],
      [
        "prom",
        "ised"
      ],
      [
        "sha",
        "de"
      ],
      [
        "sup",
        "posed"
      ],
      [
        "cont",
        "in"
      ],
      [
        "cook",
        "ed"
      ],
      [
        "danger",
        "ous"
      ],
      [
        "hun",
        "gry"
      ],
      [
        "comp",
        "an"
      ],
      [
        "comp",
        "any"
      ],
      [
        "cor",
        "rect"
      ],
      [
        "pi",
        "an"
      ],
      [
        "spo",
        "ken"
      ],
      [
        "adv",
        "ice"
      ],
      [
        "stud",
        "ents"
      ],
      [
        "depend",
        "s"
      ],
      [
        "cri",
        "cket"
      ],
      [
        "har",
        "der"
      ],
      [
        "je",
        "ct"
      ],
      [
        "jum",
        "p"
      ],
      [
        "mach",
        "ine"
      ],
      [
        "sat",
        "is"
      ],
      [
        "doll",
        "ars"
      ],
      [
        "respon",
        "sible"
      ],
      [
        "opinion",
        "s"
      ],
      [
        "emp",
        "ty"
      ],
      [
        "daught",
        "er"
      ],
      [
        "mur",
        "der"
      ],
      [
        "occ",
        "ur"
      ],
      [
        "rea",
        "li"
      ],
      [
        "memor",
        "y"
      ],
      [
        "thie",
        "f"
      ],
      [
        "govern",
        "ment"
      ],
      [
        "popul",
        "ation"
      ],
      [
        "colle",
        "ge"
      ],
      [
        "invest",
        "ig"
      ],
      [
        "brid",
        "ge"
      ],
      [
        "dou",
        "bt"
      ],
      [
        "fut",
        "ure"
      ],
      [
        "hus",
        "band"
      ],
      [
        "hist",
        "ory"
      ],
      [
        "kil",
        "led"
      ],
      [
        "mil",
        "k"
      ],
      [
        "wed",
        "ding"
      ],
      [
        "beaut",
        "y"
      ],
      [
        "secre",
        "t"
      ],
      [
        "neigh",
        "bor"
      ],
      [
        "abandon",
        "ed"
      ],
      [
        "amate",
        "ur"
      ],
      [
        "trave",
        "l"
      ],
      [
        "succ",
        "ess"
      ],
      [
        "laug",
        "hed"
      ],
      [
        "3",
        "0"
      ],
      [
        "a",
        "i"
      ],
      [
        "a",
        "tor"
      ],
      [
        "a",
        "ving"
      ],
      [
        "a",
        "head"
      ],
      [
        "b",
        "i"
      ],
      [
        "b",
        "ar"
      ],
      [
        "b",
        "ur"
      ],
      [
        "b",
        "orrow"
      ],
      [
        "b",
        "bed"
      ],
      [
        "b",
        "born"
      ],
      [
        "c",
        "ou"
      ],
      [
        "c",
        "it"
      ],
      [
        "c",
        "ce"
      ],
      [
        "c",
        "ong"
      ],
      [
        "c",
        "ure"
      ],
      [
        "c",
        "tion"
      ],
      [
        "c",
        "ross"
      ],
      [
        "d",
        "ar"
      ],
      [
        "d",
        "it"
      ],
      [
        "d",
        "ro"
      ],
      [
        "d",
        "ent"
      ],
      [
        "d",
        "ue"
      ],
      [
        "e",
        "ch"
      ],
      [
        "e",
        "ye"
      ],
      [
        "e",
        "red"
      ],
      [
        "f",
        "r"
      ],
      [
        "f",
        "ic"
      ],
      [
        "f",
        "ight"
      ],
      [
        "f",
        "ident"
      ],
      [
        "f",
        "act"
      ],
      [
        "g",
        "a"
      ],
      [
        "g",
        "one"
      ],
      [
        "g",
        "ree"
      ],
      [
        "g",
        "ard"
      ],
      [
        "h",
        "i"
      ],
      [
        "h",
        "id"
      ],
      [
        "i",
        "a"
      ],
      [
        "i",
        "ed"
      ],
      [
        "i",
        "ence"
      ],
      [
        "i",
        "ze"
      ],
      [
        "k",
        "o"
      ],
      [
        "k",
        "it"
      ],
      [
        "k",
        "no"
      ],
      [
        "k",
        "ill"
      ],
      [
        "k",
        "ite"
      ],
      [
        "l",
        "en"
      ],
      [
        "l",
        "ay"
      ],
      [
        "l",
        "and"
      ],
      [
        "l",
        "un"
      ],
      [
        "l",
        "ack"
      ],
      [
        "m",
        "b"
      ],
      [
        "m",
        "id"
      ],
      [
        "m",
        "ouse"
      ],
      [
        "o",
        "m"
      ],
      [
        "o",
        "il"
      ],
      [
        "p",
        "han"
      ],
      [
        "p",
        "air"
      ],
      [
        "p",
        "ast"
      ],
      [
        "s",
        "k"
      ],
      [
        "s",
        "end"
      ],
      [
        "s",
        "of"
      ],
      [
        "s",
        "ad"
      ],
      [
        "s",
        "ong"
      ],
      [
        "s",
        "ort"
      ],
      [
        "t",
        "w"
      ],
      [
        "t",
        "ou"
      ],
      [
        "t",
        "ri"
      ],
      [
        "t",
        "all"
      ],
      [
        "t",
        "ill"
      ],
      [
        "t",
        "ree"
      ],
      [
        "t",
        "went"
      ],
      [
        "u",
        "red"
      ],
      [
        "w",
        "ro"
      ],
      [
        "w",
        "ake"
      ],
      [
        "w",
        "ine"
      ],
      [
        "y",
        "en"
      ],
      [
        "z",
        "y"
      ],
      [
        "en",
        "s"
      ],
      [
        "en",
        "se"
      ],
      [
        "st",
        "or"
      ],
      [
        "st",
        "ant"
      ],
      [
        "st",
        "ra"
      ],
      [
        "st",
        "air"
      ],
      [
        "he",
        "art"
      ],
      [
        "in",
        "t"
      ],
      [
        "in",
        "ed"
      ],
      [
        "in",
        "depend"
      ],
      [
        "in",
        "ju"
      ],
      [
        "to",
        "es"
      ],
      [
        "to",
        "ge"
      ],
      [
        "to",
        "night"
      ],
      [
        "ha",
        "lf"
      ],
      [
        "ha",
        "med"
      ],
      [
        "on",
        "s"
      ],
      [
        "on",
        "t"
      ],
      [
        "re",
        "co"
      ],
      [
        "re",
        "ly"
      ],
      [
        "re",
        "sa"
      ],
      [
        "re",
        "mind"
      ],
      [
        "re",
        "ceive"
      ],
      [
        "an",
        "ish"
      ],
      [
        "an",
        "ces"
      ],
      [
        "ve",
        "get"
      ],
      [
        "me",
        "ant"
      ],
      [
        "me",
        "als"
      ],
      [
        "or",
        "ding"
      ],
      [
        "or",
        "dered"
      ],
      [
        "le",
        "gs"
      ],
      [
        "le",
        "aving"
      ],
      [
        "th",
        "or"
      ],
      [
        "th",
        "irst"
      ],
      [
        "as",
        "ses"
      ],
      [
        "as",
        "hamed"
      ],
      [
        "at",
        "s"
      ],
      [
        "at",
        "ing"
      ],
      [
        "at",
        "es"
      ],
      [
        "do",
        "zen"
      ],
      [
        "be",
        "come"
      ],
      [
        "se",
        "um"
      ],
      [
        "li",
        "c"
      ],
      [
        "li",
        "es"
      ],
      [
        "li",
        "br"
      ],
      [
        "li",
        "ving"
      ],
      [
        "li",
        "mit"
      ],
      [
        "we",
        "ars"
      ],
      [
        "oo",
        "th"
      ],
      [
        "no",
        "ti"
      ],
      [
        "ri",
        "ce"
      ],
      [
        "ri",
        "de"
      ],
      [
        "ri",
        "dic"
      ],
      [
        "di",
        "o"
      ],
      [
        "di",
        "am"
      ],
      [
        "al",
        "a"
      ],
      [
        "al",
        "ty"
      ],
      [
        "al",
        "ity"
      ],
      [
        "for",
        "m"
      ],
      [
        "ch",
        "ar"
      ],
      [
        "was",
        "n"
      ],
      [
        "ro",
        "t"
      ],
      [
        "ro",
        "yed"
      ],
      [
        "ro",
        "bbed"
      ],
      [
        "ad",
        "mit"
      ],
      [
        "what",
        "ever"
      ],
      [
        "ent",
        "i"
      ],
      [
        "ent",
        "y"
      ],
      [
        "ent",
        "ered"
      ],
      [
        "ce",
        "pted"
      ],
      [
        "can",
        "cer"
      ],
      [
        "te",
        "en"
      ],
      [
        "te",
        "st"
      ],
      [
        "te",
        "resa"
      ],
      [
        "ill",
        "ness"
      ],
      [
        "im",
        "it"
      ],
      [
        "ac",
        "he"
      ],
      [
        "ac",
        "qu"
      ],
      [
        "ac",
        "hed"
      ],
      [
        "ac",
        "cepted"
      ],
      [
        "ti",
        "l"
      ],
      [
        "her",
        "self"
      ],
      [
        "mo",
        "ment"
      ],
      [
        "ab",
        "sent"
      ],
      [
        "fe",
        "ed"
      ],
      [
        "un",
        "g"
      ],
      [
        "un",
        "til"
      ],
      [
        "ut",
        "s"
      ],
      [
        "ant",
        "age"
      ],
      [
        "ple",
        "s"
      ],
      [
        "ple",
        "ased"
      ],
      [
        "him",
        "self"
      ],
      [
        "pe",
        "ace"
      ],
      [
        "sh",
        "ar"
      ],
      [
        "sh",
        "ut"
      ],
      [
        "sh",
        "ort"
      ],
      [
        "si",
        "gn"
      ],
      [
        "ly",
        "ing"
      ],
      [
        "de",
        "ep"
      ],
      [
        "wor",
        "d"
      ],
      [
        "wor",
        "se"
      ],
      [
        "wor",
        "ds"
      ],
      [
        "tr",
        "af"
      ],
      [
        "fa",
        "ir"
      ],
      [
        "bo",
        "ther"
      ],
      [
        "bo",
        "red"
      ],
      [
        "bo",
        "ston"
      ],
      [
        "po",
        "em"
      ],
      [
        "po",
        "cket"
      ],
      [
        "ap",
        "art"
      ],
      [
        "ic",
        "er"
      ],
      [
        "mu",
        "seum"
      ],
      [
        "pl",
        "enty"
      ],
      [
        "su",
        "cce"
      ],
      [
        "ex",
        "tent"
      ],
      [
        "ul",
        "ous"
      ],
      [
        "ag",
        "er"
      ],
      [
        "ag",
        "ed"
      ],
      [
        "some",
        "where"
      ],
      [
        "sa",
        "ge"
      ],
      [
        "work",
        "ers"
      ],
      [
        "la",
        "w"
      ],
      [
        "help",
        "ing"
      ],
      [
        "help",
        "ed"
      ],
      [
        "com",
        "m"
      ],
      [
        "but",
        "ter"
      ],
      [
        "new",
        "sp"
      ],
      [
        "spe",
        "ed"
      ],
      [
        "spe",
        "ech"
      ],
      [
        "gl",
        "ad"
      ],
      [
        "gl",
        "ass"
      ],
      [
        "gl",
        "asses"
      ],
      [
        "pro",
        "mote"
      ],
      [
        "pro",
        "ached"
      ],
      [
        "ra",
        "dio"
      ],
      [
        "con",
        "si"
      ],
      [
        "con",
        "dit"
      ],
      [
        "con",
        "fident"
      ],
      [
        "jo",
        "ke"
      ],
      [
        "fee",
        "t"
      ],
      [
        "ck",
        "y"
      ],
      [
        "ct",
        "ri"
      ],
      [
        "off",
        "er"
      ],
      [
        "off",
        "icer"
      ],
      [
        "ust",
        "o"
      ],
      [
        "room",
        "s"
      ],
      [
        "stu",
        "bborn"
      ],
      [
        "fore",
        "st"
      ],
      [
        "fore",
        "ver"
      ],
      [
        "fore",
        "ign"
      ],
      [
        "turn",
        "ed"
      ],
      [
        "clo",
        "se"
      ],
      [
        "sp",
        "ent"
      ],
      [
        "sp",
        "anish"
      ],
      [
        "ta",
        "ught"
      ],
      [
        "wa",
        "ste"
      ],
      [
        "ame",
        "d"
      ],
      [
        "br",
        "ush"
      ],
      [
        "able",
        "s"
      ],
      [
        "ite",
        "ms"
      ],
      [
        "leave",
        "s"
      ],
      [
        "sm",
        "ooth"
      ],
      [
        "acc",
        "used"
      ],
      [
        "acc",
        "ount"
      ],
      [
        "acc",
        "ording"
      ],
      [
        "cl",
        "ub"
      ],
      [
        "answ",
        "ers"
      ],
      [
        "wait",
        "ed"
      ],
      [
        "au",
        "thor"
      ],
      [
        "bir",
        "d"
      ],
      [
        "par",
        "k"
      ],
      [
        "love",
        "s"
      ],
      [
        "bu",
        "ried"
      ],
      [
        "bu",
        "ild"
      ],
      [
        "gr",
        "ave"
      ],
      [
        "hard",
        "ly"
      ],
      [
        "stay",
        "ing"
      ],
      [
        "eat",
        "en"
      ],
      [
        "ma",
        "il"
      ],
      [
        "wal",
        "king"
      ],
      [
        "beg",
        "in"
      ],
      [
        "brother",
        "s"
      ],
      [
        "care",
        "fully"
      ],
      [
        "smo",
        "ke"
      ],
      [
        "chan",
        "ce"
      ],
      [
        "ele",
        "ven"
      ],
      [
        "ele",
        "ctri"
      ],
      [
        "fi",
        "ed"
      ],
      [
        "sleep",
        "ing"
      ],
      [
        "sho",
        "t"
      ],
      [
        "differ",
        "ent"
      ],
      [
        "che",
        "s"
      ],
      [
        "sto",
        "re"
      ],
      [
        "sto",
        "len"
      ],
      [
        "bre",
        "athe"
      ],
      [
        "fly",
        "ing"
      ],
      [
        "gu",
        "y"
      ],
      [
        "gre",
        "en"
      ],
      [
        "pul",
        "led"
      ],
      [
        "poin",
        "t"
      ],
      [
        "swim",
        "ming"
      ],
      [
        "large",
        "st"
      ],
      [
        "du",
        "ct"
      ],
      [
        "pri",
        "ze"
      ],
      [
        "sha",
        "ll"
      ],
      [
        "sup",
        "er"
      ],
      [
        "follow",
        "ing"
      ],
      [
        "cont",
        "ain"
      ],
      [
        "learn",
        "ed"
      ],
      [
        "ob",
        "ser"
      ],
      [
        "vo",
        "ice"
      ],
      [
        "allow",
        "ed"
      ],
      [
        "mov",
        "ies"
      ],
      [
        "explain",
        "ed"
      ],
      [
        "adv",
        "antage"
      ],
      [
        "teach",
        "ing"
      ],
      [
        "stud",
        "ent"
      ],
      [
        "wonder",
        "ful"
      ],
      [
        "chair",
        "s"
      ],
      [
        "tre",
        "es"
      ],
      [
        "eng",
        "ine"
      ],
      [
        "advis",
        "e"
      ],
      [
        "advis",
        "ed"
      ],
      [
        "ticket",
        "s"
      ],
      [
        "complain",
        "ing"
      ],
      [
        "tax",
        "i"
      ],
      [
        "pret",
        "ty"
      ],
      [
        "rule",
        "s"
      ],
      [
        "fre",
        "sh"
      ],
      [
        "fif",
        "ty"
      ],
      [
        "pas",
        "sed"
      ],
      [
        "pat",
        "ient"
      ],
      [
        "pie",
        "ces"
      ],
      [
        "rat",
        "ul"
      ],
      [
        "anim",
        "al"
      ],
      [
        "mes",
        "sage"
      ],
      [
        "tee",
        "th"
      ],
      [
        "tem",
        "ples"
      ],
      [
        "import",
        "ant"
      ],
      [
        "favor",
        "ite"
      ],
      [
        "break",
        "fast"
      ],
      [
        "arrog",
        "ant"
      ],
      [
        "el",
        "se"
      ],
      [
        "fran",
        "ce"
      ],
      [
        "gent",
        "le"
      ],
      [
        "lu",
        "cky"
      ],
      [
        "mile",
        "s"
      ],
      [
        "sim",
        "ple"
      ],
      [
        "inv",
        "it"
      ],
      [
        "inter",
        "pret"
      ],
      [
        "youn",
        "g"
      ],
      [
        "thir",
        "ty"
      ],
      [
        "sel",
        "ves"
      ],
      [
        "dest",
        "royed"
      ],
      [
        "sub",
        "ject"
      ],
      [
        "suit",
        "case"
      ],
      [
        "exce",
        "pt"
      ],
      [
        "safe",
        "ty"
      ],
      [
        "prote",
        "ct"
      ],
      [
        "contin",
        "ued"
      ],
      [
        "pian",
        "o"
      ],
      [
        "satis",
        "fied"
      ],
      [
        "neighbor",
        "s"
      ],
      [
        "cou",
        "ple"
      ],
      [
        "cong",
        "ratul"
      ],
      [
        "dar",
        "k"
      ],
      [
        "fr",
        "ont"
      ],
      [
        "gard",
        "en"
      ],
      [
        "kit",
        "es"
      ],
      [
        "lun",
        "ch"
      ],
      [
        "tou",
        "ch"
      ],
      [
        "tri",
        "p"
      ],
      [
        "twent",
        "y"
      ],
      [
        "wro",
        "te"
      ],
      [
        "stair",
        "s"
      ],
      [
        "independ",
        "ence"
      ],
      [
        "inju",
        "red"
      ],
      [
        "toge",
        "ther"
      ],
      [
        "reco",
        "gn"
      ],
      [
        "veget",
        "ables"
      ],
      [
        "thirst",
        "y"
      ],
      [
        "libr",
        "ary"
      ],
      [
        "ridic",
        "ulous"
      ],
      [
        "acqu",
        "ain"
      ],
      [
        "traf",
        "fic"
      ],
      [
        "succe",
        "ed"
      ],
      [
        "condit",
        "ion"
      ],
      [
        "1",
        "8"
      ],
      [
        "1",
        "00"
      ],
      [
        "2",
        "1"
      ],
      [
        "a",
        "go"
      ],
      [
        "a",
        "id"
      ],
      [
        "a",
        "live"
      ],
      [
        "a",
        "led"
      ],
      [
        "b",
        "ow"
      ],
      [
        "b",
        "at"
      ],
      [
        "b",
        "ul"
      ],
      [
        "b",
        "read"
      ],
      [
        "c",
        "s"
      ],
      [
        "c",
        "hat"
      ],
      [
        "c",
        "us"
      ],
      [
        "c",
        "our"
      ],
      [
        "c",
        "ation"
      ],
      [
        "c",
        "ous"
      ],
      [
        "c",
        "hed"
      ],
      [
        "c",
        "ious"
      ],
      [
        "c",
        "usto"
      ],
      [
        "d",
        "en"
      ],
      [
        "d",
        "ed"
      ],
      [
        "d",
        "red"
      ],
      [
        "d",
        "ra"
      ],
      [
        "d",
        "ust"
      ],
      [
        "d",
        "run"
      ],
      [
        "d",
        "ance"
      ],
      [
        "e",
        "con"
      ],
      [
        "e",
        "vent"
      ],
      [
        "f",
        "y"
      ],
      [
        "f",
        "it"
      ],
      [
        "f",
        "ac"
      ],
      [
        "f",
        "ur"
      ],
      [
        "f",
        "ine"
      ],
      [
        "f",
        "ig"
      ],
      [
        "f",
        "urn"
      ],
      [
        "f",
        "used"
      ],
      [
        "f",
        "ond"
      ],
      [
        "g",
        "i"
      ],
      [
        "g",
        "en"
      ],
      [
        "g",
        "ain"
      ],
      [
        "g",
        "un"
      ],
      [
        "g",
        "ut"
      ],
      [
        "g",
        "ust"
      ],
      [
        "h",
        "it"
      ],
      [
        "h",
        "one"
      ],
      [
        "h",
        "ood"
      ],
      [
        "h",
        "ig"
      ],
      [
        "h",
        "igh"
      ],
      [
        "h",
        "ens"
      ],
      [
        "i",
        "w"
      ],
      [
        "i",
        "or"
      ],
      [
        "i",
        "co"
      ],
      [
        "i",
        "let"
      ],
      [
        "i",
        "ries"
      ],
      [
        "i",
        "val"
      ],
      [
        "j",
        "am"
      ],
      [
        "j",
        "ung"
      ],
      [
        "k",
        "ed"
      ],
      [
        "l",
        "s"
      ],
      [
        "l",
        "hi"
      ],
      [
        "m",
        "bed"
      ],
      [
        "n",
        "s"
      ],
      [
        "n",
        "ed"
      ],
      [
        "n",
        "ake"
      ],
      [
        "n",
        "ation"
      ],
      [
        "o",
        "k"
      ],
      [
        "p",
        "s"
      ],
      [
        "p",
        "ing"
      ],
      [
        "p",
        "ur"
      ],
      [
        "p",
        "ho"
      ],
      [
        "p",
        "ped"
      ],
      [
        "p",
        "aper"
      ],
      [
        "p",
        "lies"
      ],
      [
        "r",
        "ing"
      ],
      [
        "r",
        "ent"
      ],
      [
        "r",
        "up"
      ],
      [
        "r",
        "ang"
      ],
      [
        "s",
        "ou"
      ],
      [
        "s",
        "al"
      ],
      [
        "s",
        "and"
      ],
      [
        "s",
        "wit"
      ],
      [
        "s",
        "our"
      ],
      [
        "s",
        "wo"
      ],
      [
        "s",
        "car"
      ],
      [
        "s",
        "ence"
      ],
      [
        "s",
        "cat"
      ],
      [
        "s",
        "cold"
      ],
      [
        "s",
        "nake"
      ],
      [
        "t",
        "ak"
      ],
      [
        "t",
        "ment"
      ],
      [
        "u",
        "ce"
      ],
      [
        "u",
        "ation"
      ],
      [
        "u",
        "cation"
      ],
      [
        "v",
        "in"
      ],
      [
        "v",
        "ain"
      ],
      [
        "v",
        "ic"
      ],
      [
        "v",
        "ase"
      ],
      [
        "v",
        "ary"
      ],
      [
        "v",
        "ide"
      ],
      [
        "v",
        "iron"
      ],
      [
        "v",
        "ator"
      ],
      [
        "w",
        "all"
      ],
      [
        "w",
        "ber"
      ],
      [
        "x",
        "ico"
      ],
      [
        "y",
        "or"
      ],
      [
        "y",
        "si"
      ],
      [
        "y",
        "ard"
      ],
      [
        "en",
        "jo"
      ],
      [
        "en",
        "viron"
      ],
      [
        "ar",
        "ch"
      ],
      [
        "ar",
        "gu"
      ],
      [
        "st",
        "ing"
      ],
      [
        "st",
        "ic"
      ],
      [
        "st",
        "ru"
      ],
      [
        "st",
        "ars"
      ],
      [
        "st",
        "ival"
      ],
      [
        "start",
        "s"
      ],
      [
        "he",
        "a"
      ],
      [
        "he",
        "ll"
      ],
      [
        "he",
        "ver"
      ],
      [
        "in",
        "se"
      ],
      [
        "in",
        "no"
      ],
      [
        "in",
        "come"
      ],
      [
        "in",
        "ation"
      ],
      [
        "in",
        "str"
      ],
      [
        "in",
        "side"
      ],
      [
        "in",
        "cre"
      ],
      [
        "in",
        "hale"
      ],
      [
        "in",
        "stant"
      ],
      [
        "to",
        "p"
      ],
      [
        "to",
        "ry"
      ],
      [
        "to",
        "ler"
      ],
      [
        "to",
        "ilet"
      ],
      [
        "is",
        "ion"
      ],
      [
        "ha",
        "un"
      ],
      [
        "ha",
        "bit"
      ],
      [
        "you",
        "th"
      ],
      [
        "re",
        "le"
      ],
      [
        "re",
        "al"
      ],
      [
        "re",
        "ach"
      ],
      [
        "re",
        "gre"
      ],
      [
        "re",
        "pair"
      ],
      [
        "re",
        "proached"
      ],
      [
        "re",
        "fused"
      ],
      [
        "an",
        "s"
      ],
      [
        "an",
        "swe"
      ],
      [
        "ve",
        "lo"
      ],
      [
        "me",
        "al"
      ],
      [
        "me",
        "xico"
      ],
      [
        "it",
        "ing"
      ],
      [
        "ing",
        "s"
      ],
      [
        "or",
        "ang"
      ],
      [
        "le",
        "g"
      ],
      [
        "le",
        "s"
      ],
      [
        "le",
        "br"
      ],
      [
        "ll",
        "en"
      ],
      [
        "ll",
        "ing"
      ],
      [
        "th",
        "ous"
      ],
      [
        "ed",
        "ucation"
      ],
      [
        "as",
        "ing"
      ],
      [
        "as",
        "leep"
      ],
      [
        "hat",
        "ed"
      ],
      [
        "hat",
        "es"
      ],
      [
        "at",
        "er"
      ],
      [
        "at",
        "ure"
      ],
      [
        "ay",
        "s"
      ],
      [
        "ay",
        "ed"
      ],
      [
        "be",
        "ll"
      ],
      [
        "be",
        "er"
      ],
      [
        "be",
        "tr"
      ],
      [
        "be",
        "ach"
      ],
      [
        "se",
        "a"
      ],
      [
        "se",
        "as"
      ],
      [
        "se",
        "at"
      ],
      [
        "se",
        "ven"
      ],
      [
        "se",
        "ason"
      ],
      [
        "se",
        "arch"
      ],
      [
        "li",
        "on"
      ],
      [
        "we",
        "ster"
      ],
      [
        "we",
        "aring"
      ],
      [
        "oo",
        "se"
      ],
      [
        "no",
        "te"
      ],
      [
        "al",
        "ar"
      ],
      [
        "my",
        "ster"
      ],
      [
        "for",
        "d"
      ],
      [
        "for",
        "t"
      ],
      [
        "for",
        "give"
      ],
      [
        "for",
        "ced"
      ],
      [
        "for",
        "tu"
      ],
      [
        "ch",
        "ose"
      ],
      [
        "ch",
        "oose"
      ],
      [
        "go",
        "ld"
      ],
      [
        "ro",
        "of"
      ],
      [
        "ro",
        "du"
      ],
      [
        "ro",
        "ses"
      ],
      [
        "es",
        "day"
      ],
      [
        "she",
        "et"
      ],
      [
        "ad",
        "d"
      ],
      [
        "ad",
        "e"
      ],
      [
        "ad",
        "ays"
      ],
      [
        "co",
        "ver"
      ],
      [
        "co",
        "al"
      ],
      [
        "are",
        "ly"
      ],
      [
        "wh",
        "ic"
      ],
      [
        "wh",
        "ite"
      ],
      [
        "ce",
        "lebr"
      ],
      [
        "now",
        "adays"
      ],
      [
        "te",
        "red"
      ],
      [
        "te",
        "ars"
      ],
      [
        "im",
        "possible"
      ],
      [
        "ac",
        "compan"
      ],
      [
        "ti",
        "e"
      ],
      [
        "ne",
        "sts"
      ],
      [
        "and",
        "s"
      ],
      [
        "so",
        "cc"
      ],
      [
        "ab",
        "sol"
      ],
      [
        "ab",
        "sence"
      ],
      [
        "fe",
        "ct"
      ],
      [
        "fe",
        "cted"
      ],
      [
        "fe",
        "stival"
      ],
      [
        "wit",
        "ness"
      ],
      [
        "un",
        "done"
      ],
      [
        "will",
        "ing"
      ],
      [
        "lo",
        "gy"
      ],
      [
        "lo",
        "cked"
      ],
      [
        "pe",
        "t"
      ],
      [
        "sh",
        "oo"
      ],
      [
        "si",
        "on"
      ],
      [
        "si",
        "dent"
      ],
      [
        "de",
        "er"
      ],
      [
        "de",
        "cl"
      ],
      [
        "de",
        "fin"
      ],
      [
        "de",
        "bt"
      ],
      [
        "de",
        "gree"
      ],
      [
        "de",
        "lhi"
      ],
      [
        "am",
        "ong"
      ],
      [
        "am",
        "ount"
      ],
      [
        "wor",
        "st"
      ],
      [
        "wor",
        "th"
      ],
      [
        "wor",
        "ried"
      ],
      [
        "tr",
        "ack"
      ],
      [
        "fa",
        "il"
      ],
      [
        "fa",
        "iries"
      ],
      [
        "bo",
        "ss"
      ],
      [
        "bo",
        "thered"
      ],
      [
        "po",
        "ll"
      ],
      [
        "ion",
        "ally"
      ],
      [
        "ap",
        "ers"
      ],
      [
        "ap",
        "plies"
      ],
      [
        "ho",
        "le"
      ],
      [
        "ho",
        "li"
      ],
      [
        "ho",
        "ld"
      ],
      [
        "ter",
        "y"
      ],
      [
        "mu",
        "d"
      ],
      [
        "get",
        "s"
      ],
      [
        "ca",
        "fe"
      ],
      [
        "ca",
        "used"
      ],
      [
        "ex",
        "hale"
      ],
      [
        "red",
        "uce"
      ],
      [
        "some",
        "day"
      ],
      [
        "some",
        "times"
      ],
      [
        "sa",
        "me"
      ],
      [
        "man",
        "ager"
      ],
      [
        "wo",
        "re"
      ],
      [
        "la",
        "id"
      ],
      [
        "la",
        "zy"
      ],
      [
        "af",
        "fected"
      ],
      [
        "qu",
        "i"
      ],
      [
        "qu",
        "ake"
      ],
      [
        "qu",
        "ality"
      ],
      [
        "take",
        "s"
      ],
      [
        "com",
        "ple"
      ],
      [
        "com",
        "mon"
      ],
      [
        "com",
        "put"
      ],
      [
        "use",
        "ful"
      ],
      [
        "ig",
        "no"
      ],
      [
        "ig",
        "rat"
      ],
      [
        "pro",
        "gr"
      ],
      [
        "pro",
        "per"
      ],
      [
        "pro",
        "ved"
      ],
      [
        "pro",
        "duct"
      ],
      [
        "ra",
        "ce"
      ],
      [
        "ate",
        "ly"
      ],
      [
        "con",
        "cer"
      ],
      [
        "con",
        "sc"
      ],
      [
        "con",
        "vin"
      ],
      [
        "think",
        "s"
      ],
      [
        "back",
        "s"
      ],
      [
        "say",
        "s"
      ],
      [
        "fri",
        "day"
      ],
      [
        "il",
        "ity"
      ],
      [
        "um",
        "n"
      ],
      [
        "um",
        "ents"
      ],
      [
        "play",
        "s"
      ],
      [
        "sp",
        "read"
      ],
      [
        "sp",
        "ort"
      ],
      [
        "ta",
        "il"
      ],
      [
        "ta",
        "ste"
      ],
      [
        "ta",
        "iw"
      ],
      [
        "may",
        "be"
      ],
      [
        "br",
        "it"
      ],
      [
        "mon",
        "key"
      ],
      [
        "them",
        "selves"
      ],
      [
        "pre",
        "par"
      ],
      [
        "pre",
        "vent"
      ],
      [
        "pre",
        "cious"
      ],
      [
        "pre",
        "sident"
      ],
      [
        "marri",
        "ages"
      ],
      [
        "happ",
        "iness"
      ],
      [
        "pr",
        "of"
      ],
      [
        "pr",
        "oud"
      ],
      [
        "rain",
        "y"
      ],
      [
        "sm",
        "ile"
      ],
      [
        "lot",
        "s"
      ],
      [
        "job",
        "s"
      ],
      [
        "cl",
        "as"
      ],
      [
        "feel",
        "s"
      ],
      [
        "au",
        "gust"
      ],
      [
        "par",
        "is"
      ],
      [
        "love",
        "d"
      ],
      [
        "gr",
        "ap"
      ],
      [
        "ie",
        "ld"
      ],
      [
        "self",
        "ish"
      ],
      [
        "understand",
        "ing"
      ],
      [
        "need",
        "s"
      ],
      [
        "talk",
        "ed"
      ],
      [
        "answer",
        "ing"
      ],
      [
        "eat",
        "s"
      ],
      [
        "ma",
        "th"
      ],
      [
        "ph",
        "r"
      ],
      [
        "ph",
        "ysi"
      ],
      [
        "tle",
        "s"
      ],
      [
        "cut",
        "ta"
      ],
      [
        "ear",
        "ns"
      ],
      [
        "problem",
        "s"
      ],
      [
        "care",
        "ful"
      ],
      [
        "care",
        "less"
      ],
      [
        "em",
        "igrat"
      ],
      [
        "ste",
        "al"
      ],
      [
        "dic",
        "tion"
      ],
      [
        "japan",
        "ese"
      ],
      [
        "cal",
        "cutta"
      ],
      [
        "dis",
        "sol"
      ],
      [
        "dis",
        "cus"
      ],
      [
        "dres",
        "sed"
      ],
      [
        "ious",
        "ness"
      ],
      [
        "ner",
        "ves"
      ],
      [
        "per",
        "fect"
      ],
      [
        "ru",
        "de"
      ],
      [
        "sit",
        "uation"
      ],
      [
        "ital",
        "y"
      ],
      [
        "show",
        "s"
      ],
      [
        "chan",
        "ge"
      ],
      [
        "chan",
        "ged"
      ],
      [
        "ele",
        "phan"
      ],
      [
        "ele",
        "vator"
      ],
      [
        "name",
        "s"
      ],
      [
        "sleep",
        "y"
      ],
      [
        "head",
        "ache"
      ],
      [
        "week",
        "s"
      ],
      [
        "month",
        "s"
      ],
      [
        "walk",
        "ed"
      ],
      [
        "che",
        "ers"
      ],
      [
        "che",
        "ese"
      ],
      [
        "mat",
        "ch"
      ],
      [
        "sin",
        "king"
      ],
      [
        "sing",
        "le"
      ],
      [
        "sun",
        "days"
      ],
      [
        "sto",
        "le"
      ],
      [
        "sto",
        "mach"
      ],
      [
        "stop",
        "ped"
      ],
      [
        "health",
        "y"
      ],
      [
        "tow",
        "ard"
      ],
      [
        "lear",
        "ning"
      ],
      [
        "col",
        "or"
      ],
      [
        "hand",
        "ed"
      ],
      [
        "exam",
        "ination"
      ],
      [
        "person",
        "ally"
      ],
      [
        "sent",
        "en"
      ],
      [
        "cre",
        "am"
      ],
      [
        "du",
        "ck"
      ],
      [
        "pon",
        "d"
      ],
      [
        "pri",
        "ce"
      ],
      [
        "pri",
        "de"
      ],
      [
        "sup",
        "per"
      ],
      [
        "dec",
        "ision"
      ],
      [
        "follow",
        "ed"
      ],
      [
        "bag",
        "s"
      ],
      [
        "hun",
        "dred"
      ],
      [
        "late",
        "ly"
      ],
      [
        "mis",
        "s"
      ],
      [
        "mis",
        "sed"
      ],
      [
        "mis",
        "sing"
      ],
      [
        "mis",
        "understanding"
      ],
      [
        "over",
        "seas"
      ],
      [
        "music",
        "al"
      ],
      [
        "cor",
        "ner"
      ],
      [
        "cer",
        "tain"
      ],
      [
        "cup",
        "s"
      ],
      [
        "dre",
        "amed"
      ],
      [
        "sc",
        "ience"
      ],
      [
        "wel",
        "come"
      ],
      [
        "dist",
        "ur"
      ],
      [
        "dist",
        "ance"
      ],
      [
        "sol",
        "ved"
      ],
      [
        "exc",
        "iting"
      ],
      [
        "thank",
        "s"
      ],
      [
        "aut",
        "umn"
      ],
      [
        "far",
        "m"
      ],
      [
        "ju",
        "ice"
      ],
      [
        "jum",
        "ped"
      ],
      [
        "tre",
        "ats"
      ],
      [
        "light",
        "s"
      ],
      [
        "listen",
        "ed"
      ],
      [
        "earth",
        "quake"
      ],
      [
        "19",
        "7"
      ],
      [
        "athe",
        "ist"
      ],
      [
        "count",
        "ries"
      ],
      [
        "fif",
        "teen"
      ],
      [
        "grow",
        "n"
      ],
      [
        "pas",
        "sport"
      ],
      [
        "anim",
        "als"
      ],
      [
        "tem",
        "per"
      ],
      [
        "near",
        "by"
      ],
      [
        "shout",
        "ed"
      ],
      [
        "sil",
        "k"
      ],
      [
        "sil",
        "ent"
      ],
      [
        "trust",
        "ed"
      ],
      [
        "spend",
        "s"
      ],
      [
        "prison",
        "er"
      ],
      [
        "feeling",
        "s"
      ],
      [
        "arrog",
        "ance"
      ],
      [
        "burn",
        "ing"
      ],
      [
        "cr",
        "ash"
      ],
      [
        "cli",
        "mbed"
      ],
      [
        "cur",
        "rent"
      ],
      [
        "gy",
        "m"
      ],
      [
        "kid",
        "s"
      ],
      [
        "tu",
        "esday"
      ],
      [
        "val",
        "ue"
      ],
      [
        "stri",
        "ke"
      ],
      [
        "state",
        "ment"
      ],
      [
        "hesit",
        "ation"
      ],
      [
        "shop",
        "ping"
      ],
      [
        "appe",
        "ar"
      ],
      [
        "plant",
        "s"
      ],
      [
        "pencil",
        "s"
      ],
      [
        "commit",
        "tee"
      ],
      [
        "compan",
        "ies"
      ],
      [
        "murder",
        "s"
      ],
      [
        "occur",
        "red"
      ],
      [
        "reali",
        "ze"
      ],
      [
        "reali",
        "zed"
      ],
      [
        "investig",
        "ate"
      ],
      [
        "success",
        "ful"
      ],
      [
        "bur",
        "st"
      ],
      [
        "cit",
        "ies"
      ],
      [
        "ga",
        "thered"
      ],
      [
        "ko",
        "ala"
      ],
      [
        "kno",
        "cked"
      ],
      [
        "tw",
        "ice"
      ],
      [
        "stor",
        "m"
      ],
      [
        "stra",
        "wber"
      ],
      [
        "int",
        "rodu"
      ],
      [
        "remind",
        "s"
      ],
      [
        "receive",
        "d"
      ],
      [
        "noti",
        "ced"
      ],
      [
        "diam",
        "ond"
      ],
      [
        "rot",
        "ten"
      ],
      [
        "imit",
        "ate"
      ],
      [
        "shar",
        "p"
      ],
      [
        "deep",
        "ly"
      ],
      [
        "newsp",
        "apers"
      ],
      [
        "consi",
        "sts"
      ],
      [
        "grave",
        "yard"
      ],
      [
        "begin",
        "ning"
      ],
      [
        "electri",
        "cal"
      ],
      [
        "breathe",
        "d"
      ],
      [
        "super",
        "market"
      ],
      [
        "contain",
        "s"
      ],
      [
        "obser",
        "ve"
      ],
      [
        "engine",
        "er"
      ],
      [
        "gentle",
        "man"
      ],
      [
        "invit",
        "ed"
      ],
      [
        "congratul",
        "ations"
      ],
      [
        "recogn",
        "ize"
      ],
      [
        "acquain",
        "t"
      ],
      [
        "condition",
        "er"
      ],
      [
        "cous",
        "in"
      ],
      [
        "drun",
        "k"
      ],
      [
        "econ",
        "om"
      ],
      [
        "fy",
        "ing"
      ],
      [
        "fur",
        "ther"
      ],
      [
        "gi",
        "ven"
      ],
      [
        "gain",
        "ed"
      ],
      [
        "hone",
        "st"
      ],
      [
        "jung",
        "le"
      ],
      [
        "pho",
        "to"
      ],
      [
        "swo",
        "llen"
      ],
      [
        "scat",
        "tered"
      ],
      [
        "scold",
        "ed"
      ],
      [
        "tak",
        "en"
      ],
      [
        "vide",
        "o"
      ],
      [
        "yor",
        "k"
      ],
      [
        "enjo",
        "yed"
      ],
      [
        "environ",
        "ment"
      ],
      [
        "sting",
        "y"
      ],
      [
        "stru",
        "ck"
      ],
      [
        "hell",
        "o"
      ],
      [
        "inse",
        "cure"
      ],
      [
        "instr",
        "uments"
      ],
      [
        "incre",
        "asing"
      ],
      [
        "toler",
        "ate"
      ],
      [
        "haun",
        "ted"
      ],
      [
        "regre",
        "t"
      ],
      [
        "answe",
        "red"
      ],
      [
        "orang",
        "es"
      ],
      [
        "thous",
        "ands"
      ],
      [
        "betr",
        "ayed"
      ],
      [
        "wester",
        "n"
      ],
      [
        "myster",
        "y"
      ],
      [
        "fortu",
        "ne"
      ],
      [
        "sheet",
        "s"
      ],
      [
        "whic",
        "hever"
      ],
      [
        "celebr",
        "ated"
      ],
      [
        "accompan",
        "ied"
      ],
      [
        "socc",
        "er"
      ],
      [
        "absol",
        "ute"
      ],
      [
        "witness",
        "ed"
      ],
      [
        "defin",
        "ite"
      ],
      [
        "track",
        "s"
      ],
      [
        "comput",
        "er"
      ],
      [
        "progr",
        "am"
      ],
      [
        "product",
        "s"
      ],
      [
        "consc",
        "iousness"
      ],
      [
        "convin",
        "ced"
      ],
      [
        "taiw",
        "an"
      ],
      [
        "prevent",
        "ed"
      ],
      [
        "physi",
        "cs"
      ],
      [
        "emigrat",
        "ing"
      ],
      [
        "diction",
        "ary"
      ],
      [
        "dissol",
        "ves"
      ],
      [
        "elephan",
        "t"
      ],
      [
        "strawber",
        "ries"
      ],
      [
        ".",
        "?"
      ],
      [
        "1",
        "1"
      ],
      [
        "1",
        "5"
      ],
      [
        "1",
        "6"
      ],
      [
        "2",
        "0"
      ],
      [
        "2",
        "00"
      ],
      [
        "4",
        "7"
      ],
      [
        "5",
        "1"
      ],
      [
        "5",
        "00"
      ],
      [
        "6",
        "0"
      ],
      [
        "6",
        "5"
      ],
      [
        "9",
        "7"
      ],
      [
        "a",
        "do"
      ],
      [
        "a",
        "we"
      ],
      [
        "a",
        "di"
      ],
      [
        "a",
        "co"
      ],
      [
        "a",
        "like"
      ],
      [
        "a",
        "un"
      ],
      [
        "a",
        "ur"
      ],
      [
        "a",
        "po"
      ],
      [
        "a",
        "ster"
      ],
      [
        "a",
        "use"
      ],
      [
        "a",
        "ily"
      ],
      [
        "a",
        "zed"
      ],
      [
        "b",
        "on"
      ],
      [
        "b",
        "ing"
      ],
      [
        "b",
        "as"
      ],
      [
        "b",
        "oo"
      ],
      [
        "b",
        "al"
      ],
      [
        "b",
        "one"
      ],
      [
        "b",
        "ent"
      ],
      [
        "b",
        "ill"
      ],
      [
        "b",
        "ac"
      ],
      [
        "b",
        "un"
      ],
      [
        "b",
        "ly"
      ],
      [
        "b",
        "ye"
      ],
      [
        "b",
        "row"
      ],
      [
        "b",
        "oun"
      ],
      [
        "b",
        "la"
      ],
      [
        "b",
        "ile"
      ],
      [
        "b",
        "ak"
      ],
      [
        "b",
        "ust"
      ],
      [
        "b",
        "um"
      ],
      [
        "b",
        "ound"
      ],
      [
        "b",
        "low"
      ],
      [
        "b",
        "ber"
      ],
      [
        "b",
        "ride"
      ],
      [
        "b",
        "arely"
      ],
      [
        "b",
        "ility"
      ],
      [
        "c",
        "i"
      ],
      [
        "c",
        "to"
      ],
      [
        "c",
        "ha"
      ],
      [
        "c",
        "ow"
      ],
      [
        "c",
        "ab"
      ],
      [
        "c",
        "king"
      ],
      [
        "c",
        "ul"
      ],
      [
        "c",
        "la"
      ],
      [
        "c",
        "ra"
      ],
      [
        "c",
        "ence"
      ],
      [
        "c",
        "ough"
      ],
      [
        "c",
        "ise"
      ],
      [
        "c",
        "ident"
      ],
      [
        "c",
        "ru"
      ],
      [
        "c",
        "ute"
      ],
      [
        "c",
        "ued"
      ],
      [
        "c",
        "ash"
      ],
      [
        "c",
        "ured"
      ],
      [
        "d",
        "le"
      ],
      [
        "d",
        "ri"
      ],
      [
        "d",
        "ad"
      ],
      [
        "d",
        "ut"
      ],
      [
        "d",
        "am"
      ],
      [
        "d",
        "ur"
      ],
      [
        "d",
        "ine"
      ],
      [
        "d",
        "ried"
      ],
      [
        "d",
        "ren"
      ],
      [
        "d",
        "river"
      ],
      [
        "d",
        "ates"
      ],
      [
        "d",
        "aily"
      ],
      [
        "e",
        "ve"
      ],
      [
        "e",
        "my"
      ],
      [
        "e",
        "ase"
      ],
      [
        "e",
        "qu"
      ],
      [
        "e",
        "last"
      ],
      [
        "e",
        "mer"
      ],
      [
        "e",
        "igh"
      ],
      [
        "e",
        "ager"
      ],
      [
        "e",
        "aster"
      ],
      [
        "f",
        "art"
      ],
      [
        "f",
        "is"
      ],
      [
        "f",
        "ing"
      ],
      [
        "f",
        "le"
      ],
      [
        "f",
        "ro"
      ],
      [
        "f",
        "ill"
      ],
      [
        "f",
        "ir"
      ],
      [
        "f",
        "ain"
      ],
      [
        "f",
        "ant"
      ],
      [
        "f",
        "lo"
      ],
      [
        "f",
        "la"
      ],
      [
        "f",
        "ers"
      ],
      [
        "f",
        "ate"
      ],
      [
        "f",
        "ool"
      ],
      [
        "f",
        "lat"
      ],
      [
        "f",
        "ield"
      ],
      [
        "g",
        "g"
      ],
      [
        "g",
        "an"
      ],
      [
        "g",
        "as"
      ],
      [
        "g",
        "li"
      ],
      [
        "g",
        "es"
      ],
      [
        "g",
        "ic"
      ],
      [
        "g",
        "age"
      ],
      [
        "g",
        "ate"
      ],
      [
        "g",
        "ging"
      ],
      [
        "h",
        "n"
      ],
      [
        "h",
        "u"
      ],
      [
        "h",
        "end"
      ],
      [
        "h",
        "our"
      ],
      [
        "h",
        "ide"
      ],
      [
        "h",
        "int"
      ],
      [
        "i",
        "z"
      ],
      [
        "i",
        "at"
      ],
      [
        "i",
        "do"
      ],
      [
        "i",
        "ver"
      ],
      [
        "i",
        "ther"
      ],
      [
        "i",
        "fe"
      ],
      [
        "i",
        "lo"
      ],
      [
        "i",
        "ers"
      ],
      [
        "i",
        "pul"
      ],
      [
        "i",
        "med"
      ],
      [
        "i",
        "als"
      ],
      [
        "i",
        "zen"
      ],
      [
        "i",
        "zed"
      ],
      [
        "i",
        "lies"
      ],
      [
        "j",
        "i"
      ],
      [
        "j",
        "or"
      ],
      [
        "j",
        "ac"
      ],
      [
        "j",
        "our"
      ],
      [
        "k",
        "n"
      ],
      [
        "k",
        "s"
      ],
      [
        "k",
        "in"
      ],
      [
        "k",
        "ly"
      ],
      [
        "k",
        "ilo"
      ],
      [
        "l",
        "end"
      ],
      [
        "l",
        "in"
      ],
      [
        "l",
        "ou"
      ],
      [
        "l",
        "ing"
      ],
      [
        "l",
        "ad"
      ],
      [
        "l",
        "one"
      ],
      [
        "l",
        "ent"
      ],
      [
        "l",
        "ac"
      ],
      [
        "l",
        "ap"
      ],
      [
        "l",
        "ine"
      ],
      [
        "l",
        "led"
      ],
      [
        "l",
        "ined"
      ],
      [
        "m",
        "p"
      ],
      [
        "m",
        "t"
      ],
      [
        "m",
        "ou"
      ],
      [
        "m",
        "me"
      ],
      [
        "m",
        "as"
      ],
      [
        "m",
        "ill"
      ],
      [
        "m",
        "ac"
      ],
      [
        "m",
        "and"
      ],
      [
        "m",
        "ir"
      ],
      [
        "m",
        "ood"
      ],
      [
        "m",
        "ble"
      ],
      [
        "m",
        "ala"
      ],
      [
        "m",
        "alar"
      ],
      [
        "n",
        "ar"
      ],
      [
        "n",
        "in"
      ],
      [
        "n",
        "un"
      ],
      [
        "n",
        "aught"
      ],
      [
        "n",
        "ons"
      ],
      [
        "n",
        "uts"
      ],
      [
        "n",
        "ause"
      ],
      [
        "o",
        "h"
      ],
      [
        "o",
        "x"
      ],
      [
        "o",
        "ve"
      ],
      [
        "o",
        "be"
      ],
      [
        "o",
        "ce"
      ],
      [
        "o",
        "ta"
      ],
      [
        "o",
        "dd"
      ],
      [
        "o",
        "col"
      ],
      [
        "o",
        "sts"
      ],
      [
        "o",
        "lic"
      ],
      [
        "o",
        "logy"
      ],
      [
        "o",
        "cto"
      ],
      [
        "p",
        "ou"
      ],
      [
        "p",
        "ha"
      ],
      [
        "p",
        "oo"
      ],
      [
        "p",
        "are"
      ],
      [
        "p",
        "un"
      ],
      [
        "p",
        "ly"
      ],
      [
        "p",
        "our"
      ],
      [
        "p",
        "ink"
      ],
      [
        "p",
        "age"
      ],
      [
        "p",
        "ack"
      ],
      [
        "p",
        "um"
      ],
      [
        "p",
        "ound"
      ],
      [
        "p",
        "ity"
      ],
      [
        "p",
        "ies"
      ],
      [
        "p",
        "ours"
      ],
      [
        "p",
        "ub"
      ],
      [
        "p",
        "aid"
      ],
      [
        "p",
        "kin"
      ],
      [
        "r",
        "ou"
      ],
      [
        "r",
        "is"
      ],
      [
        "r",
        "oun"
      ],
      [
        "r",
        "ate"
      ],
      [
        "r",
        "ound"
      ],
      [
        "r",
        "ty"
      ],
      [
        "r",
        "ush"
      ],
      [
        "r",
        "arely"
      ],
      [
        "s",
        "le"
      ],
      [
        "s",
        "ac"
      ],
      [
        "s",
        "mu"
      ],
      [
        "s",
        "ca"
      ],
      [
        "s",
        "la"
      ],
      [
        "s",
        "qu"
      ],
      [
        "s",
        "ang"
      ],
      [
        "s",
        "ound"
      ],
      [
        "s",
        "ity"
      ],
      [
        "s",
        "cre"
      ],
      [
        "s",
        "ense"
      ],
      [
        "s",
        "lap"
      ],
      [
        "t",
        "in"
      ],
      [
        "t",
        "ab"
      ],
      [
        "t",
        "ise"
      ],
      [
        "t",
        "ries"
      ],
      [
        "t",
        "wel"
      ],
      [
        "t",
        "win"
      ],
      [
        "t",
        "oud"
      ],
      [
        "t",
        "cy"
      ],
      [
        "t",
        "tles"
      ],
      [
        "u",
        "al"
      ],
      [
        "u",
        "gh"
      ],
      [
        "u",
        "ish"
      ],
      [
        "u",
        "ine"
      ],
      [
        "u",
        "des"
      ],
      [
        "u",
        "ries"
      ],
      [
        "u",
        "tion"
      ],
      [
        "u",
        "ated"
      ],
      [
        "v",
        "y"
      ],
      [
        "v",
        "an"
      ],
      [
        "v",
        "ant"
      ],
      [
        "v",
        "ate"
      ],
      [
        "v",
        "able"
      ],
      [
        "v",
        "ie"
      ],
      [
        "v",
        "ious"
      ],
      [
        "v",
        "ital"
      ],
      [
        "v",
        "ior"
      ],
      [
        "w",
        "is"
      ],
      [
        "w",
        "er"
      ],
      [
        "w",
        "ow"
      ],
      [
        "w",
        "ic"
      ],
      [
        "w",
        "ers"
      ],
      [
        "w",
        "ard"
      ],
      [
        "w",
        "ild"
      ],
      [
        "w",
        "ool"
      ],
      [
        "w",
        "ide"
      ],
      [
        "w",
        "ars"
      ],
      [
        "w",
        "ins"
      ],
      [
        "w",
        "ings"
      ],
      [
        "x",
        "ed"
      ],
      [
        "y",
        "s"
      ],
      [
        "y",
        "ch"
      ],
      [
        "y",
        "aw"
      ],
      [
        "y",
        "alty"
      ],
      [
        "y",
        "ield"
      ],
      [
        "z",
        "z"
      ],
      [
        "z",
        "er"
      ],
      [
        "z",
        "oo"
      ],
      [
        "en",
        "em"
      ],
      [
        "en",
        "cour"
      ],
      [
        "en",
        "velo"
      ],
      [
        "en",
        "emy"
      ],
      [
        "ar",
        "ab"
      ],
      [
        "ar",
        "ms"
      ],
      [
        "ar",
        "range"
      ],
      [
        "ar",
        "rang"
      ],
      [
        "st",
        "it"
      ],
      [
        "st",
        "at"
      ],
      [
        "st",
        "es"
      ],
      [
        "st",
        "one"
      ],
      [
        "st",
        "ab"
      ],
      [
        "st",
        "ut"
      ],
      [
        "st",
        "am"
      ],
      [
        "st",
        "aring"
      ],
      [
        "st",
        "mas"
      ],
      [
        "end",
        "ation"
      ],
      [
        "art",
        "ist"
      ],
      [
        "art",
        "est"
      ],
      [
        "start",
        "ing"
      ],
      [
        "he",
        "st"
      ],
      [
        "he",
        "ap"
      ],
      [
        "in",
        "for"
      ],
      [
        "in",
        "ally"
      ],
      [
        "in",
        "sp"
      ],
      [
        "in",
        "tell"
      ],
      [
        "in",
        "cl"
      ],
      [
        "in",
        "tend"
      ],
      [
        "in",
        "cess"
      ],
      [
        "in",
        "tent"
      ],
      [
        "in",
        "tends"
      ],
      [
        "in",
        "cident"
      ],
      [
        "ou",
        "p"
      ],
      [
        "ou",
        "ds"
      ],
      [
        "the",
        "ft"
      ],
      [
        "the",
        "ory"
      ],
      [
        "the",
        "ater"
      ],
      [
        "to",
        "y"
      ],
      [
        "to",
        "re"
      ],
      [
        "to",
        "bac"
      ],
      [
        "is",
        "y"
      ],
      [
        "is",
        "sor"
      ],
      [
        "is",
        "land"
      ],
      [
        "ha",
        "l"
      ],
      [
        "ha",
        "ste"
      ],
      [
        "ha",
        "che"
      ],
      [
        "ha",
        "mme"
      ],
      [
        "ha",
        "vior"
      ],
      [
        "on",
        "y"
      ],
      [
        "on",
        "oun"
      ],
      [
        "on",
        "ds"
      ],
      [
        "re",
        "l"
      ],
      [
        "re",
        "r"
      ],
      [
        "re",
        "w"
      ],
      [
        "re",
        "se"
      ],
      [
        "re",
        "ver"
      ],
      [
        "re",
        "for"
      ],
      [
        "re",
        "mo"
      ],
      [
        "re",
        "pe"
      ],
      [
        "re",
        "spe"
      ],
      [
        "re",
        "mor"
      ],
      [
        "re",
        "port"
      ],
      [
        "re",
        "fun"
      ],
      [
        "re",
        "lat"
      ],
      [
        "re",
        "move"
      ],
      [
        "re",
        "cent"
      ],
      [
        "re",
        "mote"
      ],
      [
        "re",
        "ction"
      ],
      [
        "re",
        "form"
      ],
      [
        "re",
        "sign"
      ],
      [
        "re",
        "comm"
      ],
      [
        "re",
        "bell"
      ],
      [
        "re",
        "qui"
      ],
      [
        "re",
        "solved"
      ],
      [
        "re",
        "ply"
      ],
      [
        "an",
        "no"
      ],
      [
        "an",
        "ch"
      ],
      [
        "an",
        "ge"
      ],
      [
        "an",
        "ket"
      ],
      [
        "an",
        "uts"
      ],
      [
        "an",
        "ches"
      ],
      [
        "ve",
        "led"
      ],
      [
        "me",
        "as"
      ],
      [
        "me",
        "at"
      ],
      [
        "me",
        "di"
      ],
      [
        "me",
        "tal"
      ],
      [
        "me",
        "tery"
      ],
      [
        "it",
        "ure"
      ],
      [
        "it",
        "self"
      ],
      [
        "it",
        "ies"
      ],
      [
        "ing",
        "uish"
      ],
      [
        "or",
        "age"
      ],
      [
        "or",
        "ig"
      ],
      [
        "or",
        "ance"
      ],
      [
        "or",
        "phan"
      ],
      [
        "or",
        "gan"
      ],
      [
        "le",
        "l"
      ],
      [
        "le",
        "an"
      ],
      [
        "le",
        "ad"
      ],
      [
        "le",
        "ather"
      ],
      [
        "le",
        "veled"
      ],
      [
        "ll",
        "a"
      ],
      [
        "ll",
        "ent"
      ],
      [
        "th",
        "in"
      ],
      [
        "th",
        "ick"
      ],
      [
        "th",
        "olic"
      ],
      [
        "th",
        "rew"
      ],
      [
        "er",
        "t"
      ],
      [
        "er",
        "y"
      ],
      [
        "er",
        "ase"
      ],
      [
        "er",
        "ations"
      ],
      [
        "er",
        "ature"
      ],
      [
        "er",
        "cise"
      ],
      [
        "er",
        "ials"
      ],
      [
        "ed",
        "s"
      ],
      [
        "ed",
        "om"
      ],
      [
        "as",
        "es"
      ],
      [
        "as",
        "ant"
      ],
      [
        "as",
        "king"
      ],
      [
        "as",
        "sa"
      ],
      [
        "as",
        "ure"
      ],
      [
        "as",
        "ia"
      ],
      [
        "as",
        "ionally"
      ],
      [
        "ow",
        "e"
      ],
      [
        "hat",
        "e"
      ],
      [
        "at",
        "mo"
      ],
      [
        "at",
        "tent"
      ],
      [
        "at",
        "les"
      ],
      [
        "at",
        "tles"
      ],
      [
        "of",
        "fe"
      ],
      [
        "do",
        "m"
      ],
      [
        "do",
        "ve"
      ],
      [
        "do",
        "able"
      ],
      [
        "be",
        "ar"
      ],
      [
        "be",
        "si"
      ],
      [
        "be",
        "ard"
      ],
      [
        "be",
        "coming"
      ],
      [
        "be",
        "ast"
      ],
      [
        "be",
        "ating"
      ],
      [
        "be",
        "zz"
      ],
      [
        "be",
        "havior"
      ],
      [
        "be",
        "atles"
      ],
      [
        "se",
        "ver"
      ],
      [
        "se",
        "ats"
      ],
      [
        "se",
        "eds"
      ],
      [
        "li",
        "er"
      ],
      [
        "li",
        "ed"
      ],
      [
        "li",
        "ber"
      ],
      [
        "li",
        "ft"
      ],
      [
        "li",
        "ged"
      ],
      [
        "li",
        "ons"
      ],
      [
        "li",
        "ked"
      ],
      [
        "we",
        "ar"
      ],
      [
        "we",
        "st"
      ],
      [
        "we",
        "ir"
      ],
      [
        "we",
        "ig"
      ],
      [
        "we",
        "alth"
      ],
      [
        "ld",
        "er"
      ],
      [
        "ver",
        "b"
      ],
      [
        "ver",
        "ac"
      ],
      [
        "ver",
        "ti"
      ],
      [
        "ver",
        "tise"
      ],
      [
        "no",
        "isy"
      ],
      [
        "ri",
        "can"
      ],
      [
        "ri",
        "but"
      ],
      [
        "ri",
        "che"
      ],
      [
        "ri",
        "dd"
      ],
      [
        "ri",
        "ding"
      ],
      [
        "ri",
        "fying"
      ],
      [
        "ri",
        "bly"
      ],
      [
        "ri",
        "stmas"
      ],
      [
        "di",
        "es"
      ],
      [
        "di",
        "cted"
      ],
      [
        "di",
        "aled"
      ],
      [
        "di",
        "gging"
      ],
      [
        "di",
        "rty"
      ],
      [
        "di",
        "rection"
      ],
      [
        "al",
        "co"
      ],
      [
        "al",
        "so"
      ],
      [
        "al",
        "oud"
      ],
      [
        "al",
        "ler"
      ],
      [
        "al",
        "pha"
      ],
      [
        "al",
        "lel"
      ],
      [
        "for",
        "man"
      ],
      [
        "for",
        "given"
      ],
      [
        "for",
        "ward"
      ],
      [
        "ch",
        "ur"
      ],
      [
        "ch",
        "ine"
      ],
      [
        "ch",
        "ocol"
      ],
      [
        "ch",
        "ristmas"
      ],
      [
        "go",
        "lf"
      ],
      [
        "was",
        "hed"
      ],
      [
        "ro",
        "l"
      ],
      [
        "ro",
        "me"
      ],
      [
        "ro",
        "lling"
      ],
      [
        "es",
        "cap"
      ],
      [
        "es",
        "sion"
      ],
      [
        "she",
        "d"
      ],
      [
        "she",
        "er"
      ],
      [
        "she",
        "ep"
      ],
      [
        "ad",
        "le"
      ],
      [
        "ad",
        "ding"
      ],
      [
        "ad",
        "uated"
      ],
      [
        "ad",
        "vertise"
      ],
      [
        "ad",
        "dicted"
      ],
      [
        "co",
        "re"
      ],
      [
        "co",
        "at"
      ],
      [
        "co",
        "ins"
      ],
      [
        "co",
        "pi"
      ],
      [
        "co",
        "pies"
      ],
      [
        "are",
        "st"
      ],
      [
        "ent",
        "er"
      ],
      [
        "ent",
        "ly"
      ],
      [
        "ent",
        "ran"
      ],
      [
        "ge",
        "st"
      ],
      [
        "ge",
        "ment"
      ],
      [
        "ge",
        "ons"
      ],
      [
        "ce",
        "l"
      ],
      [
        "ce",
        "ase"
      ],
      [
        "ce",
        "il"
      ],
      [
        "ce",
        "aled"
      ],
      [
        "ce",
        "metery"
      ],
      [
        "day",
        "time"
      ],
      [
        "gh",
        "osts"
      ],
      [
        "can",
        "adi"
      ],
      [
        "te",
        "l"
      ],
      [
        "te",
        "ly"
      ],
      [
        "te",
        "xt"
      ],
      [
        "don",
        "uts"
      ],
      [
        "his",
        "m"
      ],
      [
        "im",
        "ent"
      ],
      [
        "im",
        "ag"
      ],
      [
        "im",
        "patient"
      ],
      [
        "im",
        "medi"
      ],
      [
        "ac",
        "y"
      ],
      [
        "ac",
        "le"
      ],
      [
        "ac",
        "ti"
      ],
      [
        "ac",
        "know"
      ],
      [
        "ac",
        "ter"
      ],
      [
        "ac",
        "tor"
      ],
      [
        "ac",
        "ted"
      ],
      [
        "ac",
        "tion"
      ],
      [
        "ac",
        "hes"
      ],
      [
        "ac",
        "company"
      ],
      [
        "ti",
        "dy"
      ],
      [
        "ti",
        "ger"
      ],
      [
        "ne",
        "y"
      ],
      [
        "ne",
        "at"
      ],
      [
        "ne",
        "ither"
      ],
      [
        "ne",
        "arest"
      ],
      [
        "her",
        "s"
      ],
      [
        "her",
        "man"
      ],
      [
        "ir",
        "ation"
      ],
      [
        "ir",
        "rel"
      ],
      [
        "mo",
        "m"
      ],
      [
        "mo",
        "on"
      ],
      [
        "mo",
        "tor"
      ],
      [
        "mo",
        "ves"
      ],
      [
        "mo",
        "tion"
      ],
      [
        "mo",
        "cr"
      ],
      [
        "mo",
        "bile"
      ],
      [
        "ght",
        "ens"
      ],
      [
        "so",
        "ck"
      ],
      [
        "so",
        "rely"
      ],
      [
        "ab",
        "la"
      ],
      [
        "ab",
        "used"
      ],
      [
        "ab",
        "sur"
      ],
      [
        "ab",
        "ility"
      ],
      [
        "ab",
        "ove"
      ],
      [
        "us",
        "ual"
      ],
      [
        "fe",
        "ar"
      ],
      [
        "fe",
        "ather"
      ],
      [
        "fe",
        "ated"
      ],
      [
        "un",
        "ic"
      ],
      [
        "un",
        "ate"
      ],
      [
        "un",
        "belie"
      ],
      [
        "un",
        "used"
      ],
      [
        "un",
        "ity"
      ],
      [
        "un",
        "happy"
      ],
      [
        "un",
        "icycle"
      ],
      [
        "un",
        "found"
      ],
      [
        "un",
        "less"
      ],
      [
        "un",
        "solved"
      ],
      [
        "un",
        "iver"
      ],
      [
        "ut",
        "ed"
      ],
      [
        "ant",
        "ed"
      ],
      [
        "with",
        "in"
      ],
      [
        "lo",
        "ye"
      ],
      [
        "lo",
        "cat"
      ],
      [
        "lo",
        "ving"
      ],
      [
        "lo",
        "yalty"
      ],
      [
        "pe",
        "ak"
      ],
      [
        "pe",
        "ep"
      ],
      [
        "pe",
        "aco"
      ],
      [
        "pe",
        "anuts"
      ],
      [
        "pe",
        "asant"
      ],
      [
        "sh",
        "ran"
      ],
      [
        "si",
        "cal"
      ],
      [
        "si",
        "bility"
      ],
      [
        "de",
        "ar"
      ],
      [
        "de",
        "vo"
      ],
      [
        "de",
        "als"
      ],
      [
        "de",
        "ceive"
      ],
      [
        "de",
        "velo"
      ],
      [
        "de",
        "tail"
      ],
      [
        "de",
        "mand"
      ],
      [
        "de",
        "liber"
      ],
      [
        "de",
        "mocr"
      ],
      [
        "de",
        "feated"
      ],
      [
        "am",
        "end"
      ],
      [
        "am",
        "bit"
      ],
      [
        "am",
        "bul"
      ],
      [
        "am",
        "azed"
      ],
      [
        "tr",
        "a"
      ],
      [
        "tr",
        "ai"
      ],
      [
        "tr",
        "ans"
      ],
      [
        "tr",
        "ade"
      ],
      [
        "tr",
        "acted"
      ],
      [
        "any",
        "where"
      ],
      [
        "ur",
        "y"
      ],
      [
        "up",
        "on"
      ],
      [
        "fa",
        "ster"
      ],
      [
        "bo",
        "at"
      ],
      [
        "bo",
        "ard"
      ],
      [
        "bo",
        "iled"
      ],
      [
        "bo",
        "mb"
      ],
      [
        "bo",
        "ttles"
      ],
      [
        "po",
        "le"
      ],
      [
        "po",
        "se"
      ],
      [
        "po",
        "ta"
      ],
      [
        "po",
        "et"
      ],
      [
        "po",
        "lit"
      ],
      [
        "po",
        "ison"
      ],
      [
        "ion",
        "s"
      ],
      [
        "ion",
        "ed"
      ],
      [
        "ap",
        "proached"
      ],
      [
        "ic",
        "s"
      ],
      [
        "ic",
        "ide"
      ],
      [
        "ho",
        "l"
      ],
      [
        "ho",
        "lly"
      ],
      [
        "ho",
        "tel"
      ],
      [
        "ter",
        "ing"
      ],
      [
        "ter",
        "min"
      ],
      [
        "ter",
        "ia"
      ],
      [
        "ter",
        "ribly"
      ],
      [
        "mar",
        "ry"
      ],
      [
        "mar",
        "ked"
      ],
      [
        "mu",
        "mb"
      ],
      [
        "pl",
        "us"
      ],
      [
        "pl",
        "ary"
      ],
      [
        "su",
        "ff"
      ],
      [
        "su",
        "ade"
      ],
      [
        "su",
        "icide"
      ],
      [
        "han",
        "g"
      ],
      [
        "ca",
        "ve"
      ],
      [
        "ca",
        "ge"
      ],
      [
        "ca",
        "use"
      ],
      [
        "ca",
        "tholic"
      ],
      [
        "ood",
        "y"
      ],
      [
        "ex",
        "ag"
      ],
      [
        "ex",
        "ist"
      ],
      [
        "ex",
        "em"
      ],
      [
        "ex",
        "per"
      ],
      [
        "ex",
        "tend"
      ]
    ]
  }
}