{
  "version": "1.0",
  "truncation": null,
  "padding": null,
  "added_tokens": [
    {
      "id": 0,
      "content": "<pad>",
      "single_word": false,
      "lstrip": false,
      "rstrip": false,
      "normalized": false,
      "special": true
    },
    {
      "id": 1,
      "content": "<unk>",
      "single_word": false,
      "lstrip": false,
      "rstrip": false,
      "normalized": false,
      "special": true
    },
    {
      "id": 2,
      "content": "<start>",
      "single_word": false,
      "lstrip": false,
      "rstrip": false,
      "normalized": false,
      "special": true
    },
    {
      "id": 3,
      "content": "<end>",
      "single_word": false,
      "lstrip": false,
      "rstrip": false,
      "normalized": false,
      "special": true
    }
  ],
  "normalizer": null,
  "pre_tokenizer": {
    "type": "Whitespace"
  },
  "post_processor": null,
  "decoder": null,
  "model": {
    "type": "BPE",
    "dropout": null,
    "unk_token": null,
    "continuing_subword_prefix": null,
    "end_of_word_suffix": null,
    "fuse_unk": false,
    "byte_fallback": false,
    "ignore_merges": false,
    "vocab": {
      "<pad>": 0,
      "<unk>": 1,
      "<start>": 2,
      "<end>": 3,
      "!": 4,
      "\"": 5,
      "(": 6,
      ")": 7,
      ",": 8,
      "-": 9,
      ".": 10,
      "0": 11,
      "1": 12,
      "7": 13,
      "9": 14,
      ":": 15,
      "<": 16,
      ">": 17,
      "?": 18,
      "a": 19,
      "b": 20,
      "d": 21,
      "e": 22,
      "i": 23,
      "n": 24,
      "r": 25,
      "s": 26,
      "t": 27,
      "|": 28,
      "ँ": 29,
      "ं": 30,
      "ः": 31,
      "अ": 32,
      "आ": 33,
      "इ": 34,
      "ई": 35,
      "उ": 36,
      "ऊ": 37,
      "ऋ": 38,
      "ए": 39,
      "ऐ": 40,
      "ऑ": 41,
      "ओ": 42,
      "औ": 43,
      "क": 44,
      "ख": 45,
      "ग": 46,
      "घ": 47,
      "च": 48,
      "छ": 49,
      "ज": 50,
      "झ": 51,
      "ञ": 52,
      "ट": 53,
      "ठ": 54,
      "ड": 55,
      "ढ": 56,
      "ण": 57,
      "त": 58,
      "थ": 59,
      "द": 60,
      "ध": 61,
      "न": 62,
      "प": 63,
      "फ": 64,
      "ब": 65,
      "भ": 66,
      "म": 67,
      "य": 68,
      "र": 69,
      "ल": 70,
      "व": 71,
      "श": 72,
      "ष": 73,
      "स": 74,
      "ह": 75,
      "़": 76,
      "ा": 77,
      "ि": 78,
      "ी": 79,
      "ु": 80,
      "ू": 81,
      "ृ": 82,
      "ॅ": 83,
      "े": 84,
      "ै": 85,
      "ॉ": 86,
      "ो": 87,
      "ौ": 88,
      "्": 89,
      "।": 90,
      "०": 91,
      "१": 92,
      "२": 93,
      "४": 94,
      "५": 95,
      "६": 96,
      "७": 97,
      "८": 98,
      "९": 99,
      "‍": 100,
      "€": 101,
      "ar": 102,
      "en": 103,
      "st": 104,
      "art": 105,
      "end": 106,
      "start": 107,
      "है": 108,
      "या": 109,
      "ने": 110,
      "मे": 111,
      "ता": 112,
      "से": 113,
      "ही": 114,
      "कर": 115,
      "ना": 116,
      "ार": 117,
      "मै": 118,
      "को": 119,
      "मैं": 120,
      "क्": 121,
      "के": 122,
      "हीं": 123,
      "में": 124,
      "नहीं": 125,
      "हो": 126,
      "मु": 127,
      "कि": 128,
      "उस": 129,
      "तु": 130,
      "की": 131,
      "तुम": 132,
      "का": 133,
      "ड़": 134,
      "मुझ": 135,
      "वह": 136,
      "जा": 137,
      "हैं": 138,
      "मुझे": 139,
      "हु": 140,
      "ते": 141,
      "क्या": 142,
      "रे": 143,
      "हा": 144,
      "ज़": 145,
      "सा": 146,
      "गा": 147,
      "िए": 148,
      "वा": 149,
      "ूँ": 150,
      "चा": 151,
      "रा": 152,
      "स्": 153,
      "ला": 154,
      "था": 155,
      "नी": 156,
      "री": 157,
      "्ह": 158,
      "पा": 159,
      "भी": 160,
      "ती": 161,
      "पर": 162,
      "ों": 163,
      "दे": 164,
      "फ़": 165,
      "तुम्ह": 166,
      "अप": 167,
      "ें": 168,
      "हूँ": 169,
      "टॉ": 170,
      "टॉम": 171,
      "बहु": 172,
      "ले": 173,
      "बहुत": 174,
      "एक": 175,
      "दि": 176,
      "बा": 177,
      "हम": 178,
      "लिए": 179,
      "उसने": 180,
      "आप": 181,
      "यह": 182,
      "सक": 183,
      "रह": 184,
      "र्": 185,
      "ारे": 186,
      "दी": 187,
      "सम": 188,
      "चाह": 189,
      "खा": 190,
      "सी": 191,
      "च्": 192,
      "मा": 193,
      "गया": 194,
      "दो": 195,
      "इस": 196,
      "मेरे": 197,
      "लग": 198,
      "कल": 199,
      "शा": 200,
      "ंद": 201,
      "कु": 202,
      "और": 203,
      "तुम्हें": 204,
      "रहा": 205,
      "िया": 206,
      "ंग": 207,
      "दा": 208,
      "त्": 209,
      "ड़ी": 210,
      "तो": 211,
      "्या": 212,
      "अपने": 213,
      "उसे": 214,
      "ली": 215,
      "हाँ": 216,
      "मेरी": 217,
      "ारी": 218,
      "मैंने": 219,
      "वि": 220,
      "थी": 221,
      "मि": 222,
      "किया": 223,
      "ढ़": 224,
      "लो": 225,
      "करने": 226,
      "च्छ": 227,
      "अच्छ": 228,
      "मी": 229,
      "काम": 230,
      "पास": 231,
      "उन": 232,
      "ल्": 233,
      "म्": 234,
      "नि": 235,
      "पह": 236,
      "करना": 237,
      "अपनी": 238,
      "श्": 239,
      "सु": 240,
      "पता": 241,
      "यों": 242,
      "ैसे": 243,
      "ड़ा": 244,
      "सकता": 245,
      "पस": 246,
      "गे": 247,
      "टी": 248,
      "मत": 249,
      "कोई": 250,
      "साथ": 251,
      "दिया": 252,
      "सब": 253,
      "्रे": 254,
      "बात": 255,
      "गी": 256,
      "्र": 257,
      "चाहिए": 258,
      "उसके": 259,
      "कुछ": 260,
      "घर": 261,
      "हर": 262,
      "सकते": 263,
      "थे": 264,
      "बार": 265,
      "उसकी": 266,
      "तुम्हारे": 267,
      "छो": 268,
      "कम": 269,
      "भा": 270,
      "समय": 271,
      "रो": 272,
      "रही": 273,
      "जे": 274,
      "ताब": 275,
      "रहे": 276,
      "अभी": 277,
      "तक": 278,
      "मेरा": 279,
      "ड़े": 280,
      "हुई": 281,
      "देख": 282,
      "पी": 283,
      "बी": 284,
      "सो": 285,
      "पढ़": 286,
      "रू": 287,
      "लगता": 288,
      "कभी": 289,
      "ची": 290,
      "बि": 291,
      "लिया": 292,
      "्य": 293,
      "किताब": 294,
      "जान": 295,
      "जी": 296,
      "पि": 297,
      "बे": 298,
      "कित": 299,
      "आज": 300,
      "यहाँ": 301,
      "ूल": 302,
      "गए": 303,
      "चि": 304,
      "करता": 305,
      "हुआ": 306,
      "दिन": 307,
      "अच्छा": 308,
      "ति": 309,
      "बो": 310,
      "बजे": 311,
      "किसी": 312,
      "मिल": 313,
      "मद": 314,
      "लि": 315,
      "लगा": 316,
      "देखा": 317,
      "जो": 318,
      "जल्": 319,
      "वे": 320,
      "हमे": 321,
      "आद": 322,
      "चु": 323,
      "तर": 324,
      "सि": 325,
      "करी": 326,
      "करते": 327,
      "होगा": 328,
      "उसको": 329,
      "ज़ी": 330,
      "समझ": 331,
      "चाहता": 332,
      "अग": 333,
      "वी": 334,
      "जाए": 335,
      "लोग": 336,
      "पसंद": 337,
      "मदद": 338,
      "खु": 339,
      "गई": 340,
      "बता": 341,
      "मुझसे": 342,
      "जाने": 343,
      "कार": 344,
      "टे": 345,
      "ठी": 346,
      "बच्": 347,
      "होता": 348,
      "न्": 349,
      "िर": 350,
      "िश": 351,
      "जाना": 352,
      "पू": 353,
      "पैसे": 354,
      "ये": 355,
      "षा": 356,
      "करो": 357,
      "हुए": 358,
      "्यादा": 359,
      "छोड़": 360,
      "जि": 361,
      "डा": 362,
      "ज़्यादा": 363,
      "अपना": 364,
      "मान": 365,
      "चल": 366,
      "चला": 367,
      "टा": 368,
      "थो": 369,
      "दू": 370,
      "होती": 371,
      "स्त": 372,
      "फ़्": 373,
      "कहा": 374,
      "ग़": 375,
      "चे": 376,
      "क्यों": 377,
      "जब": 378,
      "भार": 379,
      "उससे": 380,
      "गाड़ी": 381,
      "इन": 382,
      "दु": 383,
      "पु": 384,
      "ारा": 385,
      "वाज़": 386,
      "आपको": 387,
      "शादी": 388,
      "पहले": 389,
      "कहाँ": 390,
      "पै": 391,
      "प्र": 392,
      "बह": 393,
      "बारे": 394,
      "तुम्हारी": 395,
      "भारत": 396,
      "अब": 397,
      "अंग": 398,
      "ख़": 399,
      "बु": 400,
      "लड़": 401,
      "वार": 402,
      "उसका": 403,
      "पिता": 404,
      "ट्": 405,
      "मौ": 406,
      "सर": 407,
      "साल": 408,
      "देश": 409,
      "आए": 410,
      "ऊँ": 411,
      "खे": 412,
      "टर": 413,
      "बंद": 414,
      "रत": 415,
      "सारे": 416,
      "ैसा": 417,
      "वहा": 418,
      "जाता": 419,
      "रात": 420,
      "अंग्रे": 421,
      "कौ": 422,
      "खि": 423,
      "खो": 424,
      "जिए": 425,
      "लत": 426,
      "हि": 427,
      "ियाँ": 428,
      "आदमी": 429,
      "खुश": 430,
      "अंग्रेज़ी": 431,
      "नौ": 432,
      "बर": 433,
      "वापस": 434,
      "तीन": 435,
      "देर": 436,
      "फ़ो": 437,
      "बाहर": 438,
      "हमारे": 439,
      "खाना": 440,
      "माँ": 441,
      "ँच": 442,
      "जवा": 443,
      "तै": 444,
      "तना": 445,
      "दर": 446,
      "यो": 447,
      "तुमने": 448,
      "सान": 449,
      "कुत्": 450,
      "अगर": 451,
      "वहाँ": 452,
      "उठ": 453,
      "ट्रे": 454,
      "डॉ": 455,
      "पड़": 456,
      "बड़ा": 457,
      "रि": 458,
      "शु": 459,
      "ूं": 460,
      "हों": 461,
      "तुमसे": 462,
      "ज़ि": 463,
      "बोल": 464,
      "जल्दी": 465,
      "हमेशा": 466,
      "फ़ोन": 467,
      "कैसे": 468,
      "खरी": 469,
      "फिर": 470,
      "ब्": 471,
      "ान": 472,
      "करती": 473,
      "क्षा": 474,
      "फ़ी": 475,
      "हमने": 476,
      "दोस्त": 477,
      "आया": 478,
      "कब": 479,
      "कह": 480,
      "कॉ": 481,
      "तरह": 482,
      "पे": 483,
      "पार": 484,
      "पड़े": 485,
      "बै": 486,
      "बना": 487,
      "ज़ार": 488,
      "ज़रू": 489,
      "कितने": 490,
      "लोगों": 491,
      "कौन": 492,
      "जवाब": 493,
      "आता": 494,
      "नो": 495,
      "सं": 496,
      "सू": 497,
      "्हों": 498,
      "किल": 499,
      "वाला": 500,
      "चाहते": 501,
      "मिला": 502,
      "उन्हों": 503,
      "सोच": 504,
      "उन्होंने": 505,
      "अके": 506,
      "इं": 507,
      "तम": 508,
      "दस": 509,
      "भूल": 510,
      "मार": 511,
      "ाई": 512,
      "कोश": 513,
      "जाओ": 514,
      "ज़ा": 515,
      "ूँगा": 516,
      "ेंगे": 517,
      "हमारी": 518,
      "ंदर": 519,
      "सबसे": 520,
      "बारिश": 521,
      "जल्द": 522,
      "दरवाज़": 523,
      "कूल": 524,
      "गु": 525,
      "पक": 526,
      "प्या": 527,
      "बन": 528,
      "मन": 529,
      "मुश्": 530,
      "किस": 531,
      "चान": 532,
      "स्ता": 533,
      "स्कूल": 534,
      "पापा": 535,
      "फ़ा": 536,
      "बाद": 537,
      "आपकी": 538,
      "अच्छी": 539,
      "सुन": 540,
      "नौकरी": 541,
      "मुश्किल": 542,
      "अं": 543,
      "उम्": 544,
      "धी": 545,
      "पहु": 546,
      "रख": 547,
      "लम्": 548,
      "ष्": 549,
      "सच": 550,
      "हूं": 551,
      "िक": 552,
      "करनी": 553,
      "क्टर": 554,
      "कीन": 555,
      "कीजिए": 556,
      "स्वी": 557,
      "पानी": 558,
      "सकती": 559,
      "रहता": 560,
      "र्क": 561,
      "ंगी": 562,
      "अच्छे": 563,
      "कमरे": 564,
      "जाएगा": 565,
      "ठीक": 566,
      "बच्चे": 567,
      "ग़लत": 568,
      "ट्ठी": 569,
      "खेल": 570,
      "डॉक्टर": 571,
      "कोशिश": 572,
      "खी": 573,
      "खतम": 574,
      "चो": 575,
      "बर्": 576,
      "सभी": 577,
      "सारी": 578,
      "हमें": 579,
      "मैरी": 580,
      "होने": 581,
      "जाती": 582,
      "स्ते": 583,
      "देना": 584,
      "भाई": 585,
      "जानता": 586,
      "चिट्ठी": 587,
      "ऊँगा": 588,
      "कुत्ता": 589,
      "ट्रेन": 590,
      "शुरू": 591,
      "ऐसा": 592,
      "गि": 593,
      "गर्": 594,
      "टो": 595,
      "डर": 596,
      "बद": 597,
      "भर": 598,
      "मह": 599,
      "यकीन": 600,
      "वर": 601,
      "नाम": 602,
      "वाल": 603,
      "वाले": 604,
      "विश्": 605,
      "टीवी": 606,
      "चीज़": 607,
      "थोड़ी": 608,
      "थोड़ा": 609,
      "ज़रूरत": 610,
      "प्यार": 611,
      "आई": 612,
      "क़": 613,
      "जन": 614,
      "दार": 615,
      "पत्": 616,
      "बू": 617,
      "भग": 618,
      "शहर": 619,
      "सला": 620,
      "वाई": 621,
      "पान": 622,
      "पाँच": 623,
      "तुम्हारा": 624,
      "खाने": 625,
      "शान": 626,
      "विदेश": 627,
      "उनकी": 628,
      "बिना": 629,
      "कितनी": 630,
      "चुका": 631,
      "बच्च": 632,
      "दूस": 633,
      "लड़की": 634,
      "मौसम": 635,
      "फिरसे": 636,
      "अस": 637,
      "आने": 638,
      "इतना": 639,
      "चर": 640,
      "जू": 641,
      "ढूँ": 642,
      "थक": 643,
      "ध्या": 644,
      "बस": 645,
      "बड़े": 646,
      "लती": 647,
      "सवाल": 648,
      "ौर": 649,
      "याद": 650,
      "साफ़": 651,
      "वाह": 652,
      "दिखा": 653,
      "आपके": 654,
      "माल": 655,
      "लगी": 656,
      "ंगे": 657,
      "भाग": 658,
      "रोज़": 659,
      "पीछ": 660,
      "किताबें": 661,
      "बताया": 662,
      "तैया": 663,
      "उठा": 664,
      "पार्": 665,
      "बैठ": 666,
      "ढूँढ": 667,
      "आओ": 668,
      "आवाज़": 669,
      "कै": 670,
      "गर": 671,
      "जह": 672,
      "जंग": 673,
      "तू": 674,
      "तस्वी": 675,
      "द्": 676,
      "पन": 677,
      "प्": 678,
      "मर": 679,
      "मही": 680,
      "वजह": 681,
      "हफ़्": 682,
      "ियों": 683,
      "ूर": 684,
      "क्ष": 685,
      "होगी": 686,
      "जापान": 687,
      "वाद": 688,
      "चाय": 689,
      "राब": 690,
      "दिल": 691,
      "माफ़": 692,
      "दोनो": 693,
      "निकल": 694,
      "सुबह": 695,
      "पिछ": 696,
      "मिलने": 697,
      "आदत": 698,
      "जिस": 699,
      "पुरा": 700,
      "दरवाज़े": 701,
      "बच्चों": 702,
      "ंक": 703,
      "अफ़": 704,
      "आँ": 705,
      "आमत": 706,
      "आसान": 707,
      "इसे": 708,
      "गो": 709,
      "गरे": 710,
      "घं": 711,
      "चार": 712,
      "छः": 713,
      "जन्": 714,
      "दर्": 715,
      "न्य": 716,
      "परे": 717,
      "भू": 718,
      "मो": 719,
      "यद": 720,
      "यदा": 721,
      "व्य": 722,
      "शन": 723,
      "शि": 724,
      "शौ": 725,
      "सही": 726,
      "ॉल": 727,
      "मेज़": 728,
      "होते": 729,
      "काफ़ी": 730,
      "मुझपर": 731,
      "तेज़ार": 732,
      "हाथ": 733,
      "स्ट": 734,
      "रहते": 735,
      "दोपह": 736,
      "लगती": 737,
      "शायद": 738,
      "त्र": 739,
      "ढ़ा": 740,
      "उन्ह": 741,
      "टीचर": 742,
      "पढ़ाई": 743,
      "मिलना": 744,
      "सिगरे": 745,
      "पूरी": 746,
      "चलाना": 747,
      "इनसान": 748,
      "पिताजी": 749,
      "आएगा": 750,
      "खिला": 751,
      "इंतेज़ार": 752,
      "दूसरे": 753,
      "पीछे": 754,
      "तैयार": 755,
      "महीने": 756,
      "हफ़्ते": 757,
      "पिछले": 758,
      "आमतौर": 759,
      "जन्म": 760,
      "दोपहर": 761,
      "सिगरेट": 762,
      "ँव": 763,
      "अंदर": 764,
      "इत": 765,
      "इस्ते": 766,
      "उड़ा": 767,
      "ओं": 768,
      "कृ": 769,
      "कैसा": 770,
      "कपड़े": 771,
      "खबर": 772,
      "चस्": 773,
      "जैसे": 774,
      "टै": 775,
      "डब्": 776,
      "धार": 777,
      "नदी": 778,
      "पया": 779,
      "परी": 780,
      "पड़ी": 781,
      "बचा": 782,
      "भि": 783,
      "यत": 784,
      "सफ़": 785,
      "ित": 786,
      "याल": 787,
      "तार": 788,
      "मुला": 789,
      "जाते": 790,
      "वास": 791,
      "स्या": 792,
      "लास": 793,
      "परि": 794,
      "दिख": 795,
      "लगभग": 796,
      "उनके": 797,
      "पहचान": 798,
      "श्त": 799,
      "्रि": 800,
      "भाषा": 801,
      "देखना": 802,
      "जानते": 803,
      "कितना": 804,
      "अगले": 805,
      "पूछ": 806,
      "बहन": 807,
      "लड़के": 808,
      "तैर": 809,
      "खरीद": 810,
      "कॉफ़ी": 811,
      "अकेले": 812,
      "उम्र": 813,
      "धीरे": 814,
      "ष्ट": 815,
      "गर्मी": 816,
      "पार्टी": 817,
      "दिलचस्": 818,
      "परेशान": 819,
      "जन्मदिन": 820,
      "इस्तेमाल": 821,
      "कृपया": 822,
      "परीक्षा": 823,
      "ंस": 824,
      "ंगा": 825,
      "अक्": 826,
      "आग": 827,
      "आठ": 828,
      "ईकल": 829,
      "कमी": 830,
      "कम्": 831,
      "गिर": 832,
      "घड़ी": 833,
      "चलो": 834,
      "छू": 835,
      "जहाँ": 836,
      "जैसा": 837,
      "टना": 838,
      "धा": 839,
      "निया": 840,
      "पत": 841,
      "पो": 842,
      "भरो": 843,
      "मछ": 844,
      "मज़ा": 845,
      "यम": 846,
      "लू": 847,
      "वो": 848,
      "वर्": 849,
      "सका": 850,
      "सड़": 851,
      "सों": 852,
      "ैर": 853,
      "सेव": 854,
      "होंगे": 855,
      "कात": 856,
      "तें": 857,
      "साईकल": 858,
      "गाँव": 859,
      "स्थ": 860,
      "स्टे": 861,
      "देने": 862,
      "फ़र्क": 863,
      "हूँगा": 864,
      "लेना": 865,
      "बाल": 866,
      "आपसे": 867,
      "आपका": 868,
      "समान": 869,
      "सीख": 870,
      "दाश्त": 871,
      "सुना": 872,
      "कमरा": 873,
      "पीना": 874,
      "दिनों": 875,
      "लिस": 876,
      "डाल": 877,
      "मानो": 878,
      "दूर": 879,
      "क्योंकि": 880,
      "दुनिया": 881,
      "पुलिस": 882,
      "ख़री": 883,
      "पड़ता": 884,
      "फ़ायदा": 885,
      "पहुँच": 886,
      "तस्वीर": 887,
      "आँख": 888,
      "उन्हें": 889,
      "भरोसा": 890,
      "स्टेशन": 891,
      "अन": 892,
      "अचान": 893,
      "आना": 894,
      "आरा": 895,
      "उत्": 896,
      "एँ": 897,
      "ऐसे": 898,
      "ऐसी": 899,
      "गल": 900,
      "घु": 901,
      "घटना": 902,
      "ज्": 903,
      "टिक": 904,
      "डे": 905,
      "तों": 906,
      "दवाई": 907,
      "धे": 908,
      "नई": 909,
      "बज": 910,
      "बजा": 911,
      "मं": 912,
      "मश": 913,
      "मना": 914,
      "यक": 915,
      "यु": 916,
      "रु": 917,
      "वैसा": 918,
      "शो": 919,
      "शब्": 920,
      "सच्": 921,
      "केट": 922,
      "कान": 923,
      "काल": 924,
      "जाकर": 925,
      "वादा": 926,
      "राज": 927,
      "स्वा": 928,
      "लाया": 929,
      "रीका": 930,
      "पाल": 931,
      "पाया": 932,
      "फ़ि": 933,
      "फ़ै": 934,
      "र्ट": 935,
      "दीजिए": 936,
      "समस्या": 937,
      "विद": 938,
      "कामया": 939,
      "निर्": 940,
      "बीमार": 941,
      "चीनी": 942,
      "लियाँ": 943,
      "चुके": 944,
      "न्द": 945,
      "ग़लती": 946,
      "पैर": 947,
      "कुत्ते": 948,
      "पड़ो": 949,
      "खरीदी": 950,
      "कहना": 951,
      "अकेला": 952,
      "रखना": 953,
      "कीजिएगा": 954,
      "विश्वास": 955,
      "जूते": 956,
      "दर्द": 957,
      "मज़ाक": 958,
      "अचानक": 959,
      "आराम": 960,
      "ज्ञ": 961,
      "शब्द": 962,
      "ंड": 963,
      "ंत": 964,
      "अलग": 965,
      "अजी": 966,
      "अभि": 967,
      "आती": 968,
      "उड़": 969,
      "एगा": 970,
      "कत": 971,
      "कू": 972,
      "खराब": 973,
      "गह": 974,
      "घो": 975,
      "चह": 976,
      "छा": 977,
      "जु": 978,
      "डि": 979,
      "ड्": 980,
      "धो": 981,
      "धन्य": 982,
      "नट": 983,
      "नों": 984,
      "फल": 985,
      "फूल": 986,
      "भे": 987,
      "मज़": 988,
      "रवि": 989,
      "लौ": 990,
      "वत": 991,
      "वल": 992,
      "सप": 993,
      "सौ": 994,
      "सैर": 995,
      "हवा": 996,
      "ीन": 997,
      "करके": 998,
      "करूँगा": 999,
      "क्ति": 1000,
      "मुस्": 1001,
      "किन": 1002,
      "काट": 1003,
      "काश": 1004,
      "तेज़": 1005,
      "हां": 1006,
      "वाना": 1007,
      "चालू": 1008,
      "राजा": 1009,
      "राज़": 1010,
      "लाई": 1011,
      "नीचे": 1012,
      "हमारा": 1013,
      "रहने": 1014,
      "रहना": 1015,
      "रहती": 1016,
      "र्म": 1017,
      "चाहती": 1018,
      "सीब": 1019,
      "माता": 1020,
      "इसके": 1021,
      "मीद": 1022,
      "म्मे": 1023,
      "छोटी": 1024,
      "भाल": 1025,
      "देखने": 1026,
      "बीच": 1027,
      "बिस्": 1028,
      "जानवर": 1029,
      "बेच": 1030,
      "लिखी": 1031,
      "लगाया": 1032,
      "चुकी": 1033,
      "समझा": 1034,
      "जाएगी": 1035,
      "जितना": 1036,
      "कहानी": 1037,
      "पैसों": 1038,
      "ख़याल": 1039,
      "मौत": 1040,
      "खिड़": 1041,
      "खुशी": 1042,
      "पेड़": 1043,
      "दरवाज़ा": 1044,
      "पकड़": 1045,
      "उम्मीद": 1046,
      "पहुँ": 1047,
      "लम्बा": 1048,
      "खेलना": 1049,
      "बर्दाश्त": 1050,
      "बदल": 1051,
      "सलाह": 1052,
      "असफल": 1053,
      "ध्यान": 1054,
      "दिखाई": 1055,
      "पुराने": 1056,
      "इतने": 1057,
      "मुलाकात": 1058,
      "कम्प": 1059,
      "सड़क": 1060,
      "टिकट": 1061,
      "फ़िल्": 1062,
      "विद्या": 1063,
      "अजीब": 1064,
      "चहिए": 1065,
      "धन्यवाद": 1066,
      "रविवार": 1067,
      "ँस": 1068,
      "ंच": 1069,
      "ंत्र": 1070,
      "अध्या": 1071,
      "आस": 1072,
      "आसमान": 1073,
      "ऑस्": 1074,
      "कप": 1075,
      "कना": 1076,
      "कहीं": 1077,
      "खार": 1078,
      "खड़ा": 1079,
      "जरू": 1080,
      "झी": 1081,
      "टू": 1082,
      "तनी": 1083,
      "दूँगा": 1084,
      "नती": 1085,
      "पिया": 1086,
      "बत्": 1087,
      "बड़ी": 1088,
      "बारी": 1089,
      "बढ़": 1090,
      "मव": 1091,
      "मने": 1092,
      "मारी": 1093,
      "मम्": 1094,
      "यर": 1095,
      "यता": 1096,
      "यहां": 1097,
      "रंग": 1098,
      "सहा": 1099,
      "संगी": 1100,
      "ूब": 1101,
      "करे": 1102,
      "कर्": 1103,
      "नाप": 1104,
      "क्यो": 1105,
      "क्लास": 1106,
      "होमव": 1107,
      "रें": 1108,
      "सात": 1109,
      "वान": 1110,
      "वाली": 1111,
      "चाई": 1112,
      "राई": 1113,
      "स्सा": 1114,
      "लेट": 1115,
      "रहें": 1116,
      "र्थी": 1117,
      "र्घटना": 1118,
      "खाली": 1119,
      "दोनों": 1120,
      "विष": 1121,
      "विज्ञ": 1122,
      "मिले": 1123,
      "मिनट": 1124,
      "ढ़े": 1125,
      "निस": 1126,
      "निरा": 1127,
      "नियम": 1128,
      "सुंदर": 1129,
      "पीने": 1130,
      "पढ़ा": 1131,
      "बेसब": 1132,
      "चिं": 1133,
      "चिल्": 1134,
      "लिख": 1135,
      "लगाकर": 1136,
      "सिखा": 1137,
      "बताओ": 1138,
      "टेनिस": 1139,
      "बच्चा": 1140,
      "पूरे": 1141,
      "फ़्रा": 1142,
      "दुर्घटना": 1143,
      "पैदा": 1144,
      "बुरी": 1145,
      "बुखार": 1146,
      "खोल": 1147,
      "ट्रेलिया": 1148,
      "ज़िन्द": 1149,
      "ज़िम्मे": 1150,
      "दोस्तों": 1151,
      "पड़ेगी": 1152,
      "जाओगे": 1153,
      "अंतर": 1154,
      "लम्बी": 1155,
      "चोर": 1156,
      "चोरी": 1157,
      "विश्व": 1158,
      "गरम": 1159,
      "जंगल": 1160,
      "अफ़वाह": 1161,
      "व्यक्ति": 1162,
      "टैक्": 1163,
      "डब्बे": 1164,
      "परिवार": 1165,
      "तैरना": 1166,
      "अक्सर": 1167,
      "छूट": 1168,
      "पतंग": 1169,
      "आँखें": 1170,
      "अनु": 1171,
      "शोर": 1172,
      "मज़े": 1173,
      "मुस्कु": 1174,
      "बिस्तर": 1175,
      "खिड़की": 1176,
      "विद्यार्थी": 1177,
      "अध्यापक": 1178,
      "ऑस्ट्रेलिया": 1179,
      "मम्मी": 1180,
      "संगीत": 1181,
      "होमवर्क": 1182,
      "ज़िन्दगी": 1183,
      "ज़िम्मेदार": 1184,
      "?\"": 1185,
      "ँगे": 1186,
      "अमी": 1187,
      "आख": 1188,
      "आते": 1189,
      "आसा": 1190,
      "आगे": 1191,
      "आऊँगा": 1192,
      "उप": 1193,
      "उतार": 1194,
      "ओर": 1195,
      "कं": 1196,
      "कई": 1197,
      "कठ": 1198,
      "खट": 1199,
      "खड़े": 1200,
      "चौ": 1201,
      "चर्": 1202,
      "छु": 1203,
      "जै": 1204,
      "जॉ": 1205,
      "झा": 1206,
      "झू": 1207,
      "टों": 1208,
      "तब": 1209,
      "तरे": 1210,
      "दौ": 1211,
      "नत": 1212,
      "नया": 1213,
      "नम्": 1214,
      "नगर": 1215,
      "पं": 1216,
      "पहा": 1217,
      "पड़ा": 1218,
      "प्रे": 1219,
      "बक": 1220,
      "बजाना": 1221,
      "बस्ता": 1222,
      "बॉल": 1223,
      "ब्रि": 1224,
      "मंग": 1225,
      "मवार": 1226,
      "यू": 1227,
      "रक्षा": 1228,
      "लब": 1229,
      "लर": 1230,
      "लें": 1231,
      "लंद": 1232,
      "वही": 1233,
      "षण": 1234,
      "सके": 1235,
      "समु": 1236,
      "सहम": 1237,
      "हल्": 1238,
      "ूम": 1239,
      "ैन": 1240,
      "१९": 1241,
      "नें": 1242,
      "तारे": 1243,
      "ताकत": 1244,
      "क्र": 1245,
      "क्रि": 1246,
      "उसपर": 1247,
      "कीमत": 1248,
      "ड़ो": 1249,
      "ड़ियाँ": 1250,
      "जाऊ": 1251,
      "जाऊँगा": 1252,
      "हाज़": 1253,
      "साब": 1254,
      "सांस": 1255,
      "सामने": 1256,
      "साढ़े": 1257,
      "गाना": 1258,
      "स्पता": 1259,
      "रीब": 1260,
      "पागल": 1261,
      "फ़े": 1262,
      "ेंट": 1263,
      "लेकिन": 1264,
      "बादी": 1265,
      "हमको": 1266,
      "दीं": 1267,
      "सम्": 1268,
      "दोगे": 1269,
      "इससे": 1270,
      "लगते": 1271,
      "कुर": 1272,
      "औरत": 1273,
      "लीं": 1274,
      "थीं": 1275,
      "ल्ली": 1276,
      "निकाल": 1277,
      "्रै": 1278,
      "छोटे": 1279,
      "छोटा": 1280,
      "रोप": 1281,
      "देखभाल": 1282,
      "पीठ": 1283,
      "बीमारी": 1284,
      "सोमवार": 1285,
      "पढ़ने": 1286,
      "पढ़ना": 1287,
      "रूप": 1288,
      "बिल": 1289,
      "तियों": 1290,
      "बोला": 1291,
      "बोलो": 1292,
      "चुरा": 1293,
      "समझता": 1294,
      "खुद": 1295,
      "पूरा": 1296,
      "करोगे": 1297,
      "जितनी": 1298,
      "सरकार": 1299,
      "हिसाब": 1300,
      "योग": 1301,
      "डॉलर": 1302,
      "पेट": 1303,
      "बैंक": 1304,
      "ज़रूरी": 1305,
      "कौनसा": 1306,
      "भूलना": 1307,
      "गुस्सा": 1308,
      "किसने": 1309,
      "सुनकर": 1310,
      "अंडे": 1311,
      "स्वीकार": 1312,
      "ग़लतियाँ": 1313,
      "टोक्यो": 1314,
      "बूढ़ा": 1315,
      "असली": 1316,
      "सवालों": 1317,
      "आओगे": 1318,
      "अफ़सर": 1319,
      "घंटों": 1320,
      "भूख": 1321,
      "शौक": 1322,
      "खिलाड़ी": 1323,
      "सफ़र": 1324,
      "दिखने": 1325,
      "खरीदना": 1326,
      "दिलचस्प": 1327,
      "दिलचस्पी": 1328,
      "धानी": 1329,
      "मछलियाँ": 1330,
      "स्थ्य": 1331,
      "सीखना": 1332,
      "सुनाई": 1333,
      "ख़रीद": 1334,
      "घुसा": 1335,
      "बजाय": 1336,
      "मशीन": 1337,
      "रुक": 1338,
      "सच्चाई": 1339,
      "राजधानी": 1340,
      "स्वास्थ्य": 1341,
      "फ़ैसला": 1342,
      "कामयाब": 1343,
      "डियो": 1344,
      "फ़िल्म": 1345,
      "कनाडा": 1346,
      "झील": 1347,
      "सहायता": 1348,
      "विज्ञान": 1349,
      "निराश": 1350,
      "बेसबॉल": 1351,
      "चिंता": 1352,
      "मुस्कुरा": 1353,
      "अमीर": 1354,
      "आसानी": 1355,
      "दौड़": 1356,
      "नम्बर": 1357,
      "पहाड़": 1358,
      "मंगल": 1359,
      "लंदन": 1360,
      "सहमत": 1361,
      "स्पताल": 1362,
      "ंदी": 1363,
      "अख": 1364,
      "अम्": 1365,
      "अफ़्": 1366,
      "अटै": 1367,
      "आव": 1368,
      "आश्": 1369,
      "इल": 1370,
      "इरा": 1371,
      "इति": 1372,
      "उतना": 1373,
      "उपन": 1374,
      "उधार": 1375,
      "ऊपर": 1376,
      "एं": 1377,
      "कत्": 1378,
      "कवि": 1379,
      "खर्": 1380,
      "खटा": 1381,
      "गत": 1382,
      "ग्": 1383,
      "ग्या": 1384,
      "गरीब": 1385,
      "चकि": 1386,
      "चले": 1387,
      "चली": 1388,
      "छी": 1389,
      "छला": 1390,
      "जना": 1391,
      "जों": 1392,
      "जली": 1393,
      "जगह": 1394,
      "जहाज़": 1395,
      "टु": 1396,
      "टार": 1397,
      "ड्रे": 1398,
      "तौ": 1399,
      "तज़ार": 1400,
      "नहा": 1401,
      "नफ़": 1402,
      "नसि": 1403,
      "नसीब": 1404,
      "पति": 1405,
      "फै": 1406,
      "फें": 1407,
      "बॉ": 1408,
      "बढ़ा": 1409,
      "भो": 1410,
      "भला": 1411,
      "मूँ": 1412,
      "मजब": 1413,
      "मचार": 1414,
      "रहो": 1415,
      "रों": 1416,
      "रखा": 1417,
      "रहूँगा": 1418,
      "लक": 1419,
      "व्या": 1420,
      "शे": 1421,
      "शराब": 1422,
      "सारा": 1423,
      "हत": 1424,
      "हद": 1425,
      "हार": 1426,
      "हरे": 1427,
      "हरा": 1428,
      "हतर": 1429,
      "हनत": 1430,
      "िन": 1431,
      "ुट": 1432,
      "।\"": 1433,
      "मेहनत": 1434,
      "ताव": 1435,
      "सेहत": 1436,
      "करूँ": 1437,
      "नाक": 1438,
      "केवल": 1439,
      "होना": 1440,
      "मुताब": 1441,
      "मुफ़्": 1442,
      "तुर": 1443,
      "काला": 1444,
      "कायत": 1445,
      "ड़िया": 1446,
      "जाऊँ": 1447,
      "हास": 1448,
      "सामान": 1449,
      "चाबी": 1450,
      "चाहूँगा": 1451,
      "राय": 1452,
      "रास्ते": 1453,
      "स्य": 1454,
      "लाब": 1455,
      "लायक": 1456,
      "पर्": 1457,
      "देते": 1458,
      "फ़ुट": 1459,
      "अप्रै": 1460,
      "लेज": 1461,
      "लेने": 1462,
      "बाज़ी": 1463,
      "हमसे": 1464,
      "रहेंगे": 1465,
      "चाहे": 1466,
      "चाहेंगे": 1467,
      "सीधे": 1468,
      "इसको": 1469,
      "इसलिए": 1470,
      "कुल": 1471,
      "त्या": 1472,
      "तोह": 1473,
      "्यास": 1474,
      "विमान": 1475,
      "ढ़ी": 1476,
      "मील": 1477,
      "उनको": 1478,
      "निक": 1479,
      "पहनी": 1480,
      "श्चि": 1481,
      "श्यक": 1482,
      "सुन्": 1483,
      "सुधार": 1484,
      "पसंदी": 1485,
      "्रो": 1486,
      "बीस": 1487,
      "सोने": 1488,
      "सोते": 1489,
      "चीन": 1490,
      "बिजली": 1491,
      "जीत": 1492,
      "बेटे": 1493,
      "बेहतर": 1494,
      "आजकल": 1495,
      "बोली": 1496,
      "मिलेंगे": 1497,
      "लिखा": 1498,
      "तरफ़": 1499,
      "तरनाक": 1500,
      "खुला": 1501,
      "न्स": 1502,
      "िरकार": 1503,
      "छोड़ने": 1504,
      "डाँ": 1505,
      "डाला": 1506,
      "चलें": 1507,
      "दूध": 1508,
      "इनकार": 1509,
      "दुकान": 1510,
      "प्रस्ता": 1511,
      "बहनें": 1512,
      "बुलाया": 1513,
      "बुराई": 1514,
      "लड़का": 1515,
      "हिला": 1516,
      "हिचकि": 1517,
      "बरफ़": 1518,
      "माँग": 1519,
      "योजना": 1520,
      "बोलना": 1521,
      "कॉलेज": 1522,
      "पेनसि": 1523,
      "पड़ेगा": 1524,
      "बनाया": 1525,
      "बनाने": 1526,
      "संतु": 1527,
      "सूस": 1528,
      "सुनने": 1529,
      "खीं": 1530,
      "गिटार": 1531,
      "महंगा": 1532,
      "महसूस": 1533,
      "चीज़ें": 1534,
      "क़ा": 1535,
      "पत्नी": 1536,
      "भगवान": 1537,
      "ढूँढने": 1538,
      "कैं": 1539,
      "कैसी": 1540,
      "प्त": 1541,
      "पुरानी": 1542,
      "गोली": 1543,
      "घंटे": 1544,
      "शिकायत": 1545,
      "शौकिया": 1546,
      "डब्बा": 1547,
      "कमीज़": 1548,
      "पोर्ट": 1549,
      "वर्ष": 1550,
      "पालन": 1551,
      "पड़ोस": 1552,
      "घोड़े": 1553,
      "सपना": 1554,
      "बेचैन": 1555,
      "टिकटें": 1556,
      "जरूरत": 1557,
      "बत्ती": 1558,
      "कर्मचार": 1559,
      "विषय": 1560,
      "चिल्ला": 1561,
      "आखिरकार": 1562,
      "कठिन": 1563,
      "खटखटा": 1564,
      "झूठ": 1565,
      "ब्रिज": 1566,
      "यूरोप": 1567,
      "क्रिकेट": 1568,
      "बिलकुल": 1569,
      "मंगलवार": 1570,
      "अखबार": 1571,
      "अफ़्रीका": 1572,
      "अटैची": 1573,
      "आवश्यक": 1574,
      "आश्चर्": 1575,
      "इरादा": 1576,
      "इतिहास": 1577,
      "उपन्यास": 1578,
      "ग्यारह": 1579,
      "ड्रेस": 1580,
      "नफ़रत": 1581,
      "भोजन": 1582,
      "मजबूर": 1583,
      "मुताबिक": 1584,
      "मुफ़्त": 1585,
      "अप्रैल": 1586,
      "सुन्दर": 1587,
      "पसंदीता": 1588,
      "प्रस्ताव": 1589,
      "कर्मचारियों": 1590,
      "ँग": 1591,
      "ँगा": 1592,
      "ंप": 1593,
      "ंश": 1594,
      "ंडा": 1595,
      "अध": 1596,
      "अर": 1597,
      "अमे": 1598,
      "अला": 1599,
      "अर्": 1600,
      "अड्": 1601,
      "अस्पताल": 1602,
      "इला": 1603,
      "उल": 1604,
      "उल्": 1605,
      "उतारे": 1606,
      "कट": 1607,
      "कड़": 1608,
      "खन": 1609,
      "खड़ी": 1610,
      "ख्या": 1611,
      "खूब": 1612,
      "खतरनाक": 1613,
      "गलत": 1614,
      "चू": 1615,
      "चढ़": 1616,
      "चश्": 1617,
      "छत": 1618,
      "छि": 1619,
      "छता": 1620,
      "जर": 1621,
      "जल": 1622,
      "झु": 1623,
      "टरी": 1624,
      "ठंड": 1625,
      "ठंडा": 1626,
      "डी": 1627,
      "डेंट": 1628,
      "णय": 1629,
      "तियाँ": 1630,
      "थरा": 1631,
      "दम": 1632,
      "दारी": 1633,
      "दफ़्": 1634,
      "ध्य": 1635,
      "धाई": 1636,
      "नए": 1637,
      "नम": 1638,
      "नक्": 1639,
      "नकल": 1640,
      "पका": 1641,
      "पचा": 1642,
      "पटा": 1643,
      "पक्ष": 1644,
      "पश्चि": 1645,
      "पछता": 1646,
      "बहा": 1647,
      "बनी": 1648,
      "बले": 1649,
      "ब्र": 1650,
      "बधाई": 1651,
      "भौ": 1652,
      "भारी": 1653,
      "मक्": 1654,
      "महा": 1655,
      "मर्": 1656,
      "मारा": 1657,
      "मध्य": 1658,
      "रवाना": 1659,
      "लह": 1660,
      "लै": 1661,
      "लूँ": 1662,
      "वै": 1663,
      "वस्": 1664,
      "वसी": 1665,
      "शक": 1666,
      "शर्म": 1667,
      "सत": 1668,
      "सव": 1669,
      "सह": 1670,
      "सर्": 1671,
      "सियाँ": 1672,
      "सज़ा": 1673,
      "हँ": 1674,
      "हे": 1675,
      "हड़": 1676,
      "हज़ार": 1677,
      "हवाई": 1678,
      "िंग": 1679,
      "िति": 1680,
      "ुकाम": 1681,
      "ून": 1682,
      "हैरा": 1683,
      "यान": 1684,
      "ताई": 1685,
      "करवा": 1686,
      "करें": 1687,
      "करेंगे": 1688,
      "करवाना": 1689,
      "नानी": 1690,
      "नाश्": 1691,
      "क्त": 1692,
      "क्लब": 1693,
      "केक": 1694,
      "होश": 1695,
      "होनी": 1696,
      "मुर्": 1697,
      "मुबार": 1698,
      "मुसीब": 1699,
      "कीम": 1700,
      "तुमको": 1701,
      "काले": 1702,
      "जाया": 1703,
      "तेल": 1704,
      "तेज़ी": 1705,
      "रेश": 1706,
      "रेसा": 1707,
      "रेलगा": 1708,
      "रेडियो": 1709,
      "ज़ुकाम": 1710,
      "गाई": 1711,
      "गाते": 1712,
      "गाड़ियाँ": 1713,
      "वालिया": 1714,
      "चावल": 1715,
      "राह": 1716,
      "राज़ी": 1717,
      "रास्ता": 1718,
      "स्प": 1719,
      "स्टॉ": 1720,
      "स्ति": 1721,
      "लाल": 1722,
      "लाना": 1723,
      "लाती": 1724,
      "नींद": 1725,
      "नीली": 1726,
      "पाय": 1727,
      "पाता": 1728,
      "तीं": 1729,
      "तीस": 1730,
      "तीक्षा": 1731,
      "पर्या": 1732,
      "देता": 1733,
      "देगी": 1734,
      "फ़िक": 1735,
      "लेता": 1736,
      "लेनी": 1737,
      "बाँ": 1738,
      "बाज़ार": 1739,
      "आपने": 1740,
      "खाता": 1741,
      "खाते": 1742,
      "सीना": 1743,
      "सीसी": 1744,
      "सीडेंट": 1745,
      "लगे": 1746,
      "कलम": 1747,
      "शाम": 1748,
      "ंदगी": 1749,
      "औरतों": 1750,
      "त्म": 1751,
      "तोड़": 1752,
      "विवाह": 1753,
      "मिली": 1754,
      "उनसे": 1755,
      "उनका": 1756,
      "म्यु": 1757,
      "निभा": 1758,
      "पहने": 1759,
      "पहली": 1760,
      "सुनी": 1761,
      "सुथरा": 1762,
      "टीम": 1763,
      "सब्": 1764,
      "बातची": 1765,
      "बारह": 1766,
      "भाषण": 1767,
      "रोक": 1768,
      "रोया": 1769,
      "रोने": 1770,
      "जेब": 1771,
      "देखकर": 1772,
      "देखते": 1773,
      "देखें": 1774,
      "सोचा": 1775,
      "चीजों": 1776,
      "बिल्ली": 1777,
      "्यू": 1778,
      "जानना": 1779,
      "जीते": 1780,
      "बेहोश": 1781,
      "चित": 1782,
      "बोर": 1783,
      "लियों": 1784,
      "लगाई": 1785,
      "चुना": 1786,
      "सिर": 1787,
      "सियों": 1788,
      "समझो": 1789,
      "अगली": 1790,
      "जाएं": 1791,
      "जाएँगे": 1792,
      "खुल": 1793,
      "बताने": 1794,
      "टेरेसा": 1795,
      "न्न": 1796,
      "येन": 1797,
      "छोड़ो": 1798,
      "छोड़ना": 1799,
      "जिसे": 1800,
      "डाक": 1801,
      "मानते": 1802,
      "टाई": 1803,
      "टाने": 1804,
      "थोड़े": 1805,
      "होतीं": 1806,
      "स्तकाल": 1807,
      "पुस्तकाल": 1808,
      "शादीशु": 1809,
      "प्रतीक्षा": 1810,
      "मौके": 1811,
      "खेत": 1812,
      "वहां": 1813,
      "रातभर": 1814,
      "कौआ": 1815,
      "खिल": 1816,
      "उठता": 1817,
      "उठते": 1818,
      "रिका": 1819,
      "ूंगा": 1820,
      "ज़ियम": 1821,
      "बोलने": 1822,
      "बोलता": 1823,
      "बोलते": 1824,
      "कब्रि": 1825,
      "कहने": 1826,
      "कौनसी": 1827,
      "संभ": 1828,
      "संदेश": 1829,
      "सूरत": 1830,
      "सोचता": 1831,
      "इंतज़ार": 1832,
      "मार्": 1833,
      "ज़ाम": 1834,
      "जल्दबाज़ी": 1835,
      "पकड़ा": 1836,
      "स्तान": 1837,
      "अंत": 1838,
      "धीमी": 1839,
      "लम्बे": 1840,
      "सकतीं": 1841,
      "चोट": 1842,
      "बर्बादी": 1843,
      "बर्ताव": 1844,
      "गिंग": 1845,
      "गिलास": 1846,
      "गर्म": 1847,
      "टोपी": 1848,
      "महंगी": 1849,
      "वरण": 1850,
      "क़ै": 1851,
      "पत्र": 1852,
      "दिखाया": 1853,
      "मालूम": 1854,
      "बैठा": 1855,
      "बैठिए": 1856,
      "तस्वीरें": 1857,
      "द्ध": 1858,
      "जिससे": 1859,
      "भूत": 1860,
      "व्यस्त": 1861,
      "स्टन": 1862,
      "लगतीं": 1863,
      "इतनी": 1864,
      "मुलाक़ा": 1865,
      "पहचानता": 1866,
      "मछली": 1867,
      "स्थित": 1868,
      "उत्तर": 1869,
      "बजने": 1870,
      "मंदि": 1871,
      "कामयाबी": 1872,
      "निर्भर": 1873,
      "निर्णय": 1874,
      "छाया": 1875,
      "धोओ": 1876,
      "भेजा": 1877,
      "लौट": 1878,
      "सपने": 1879,
      "पहुँचा": 1880,
      "पहुँचे": 1881,
      "बदलने": 1882,
      "कम्पनी": 1883,
      "नतीजे": 1884,
      "पियानो": 1885,
      "करेगा": 1886,
      "टैक्स": 1887,
      "टैक्सी": 1888,
      "छुट्": 1889,
      "जैसी": 1890,
      "जॉगिंग": 1891,
      "पंछी": 1892,
      "समुंदर": 1893,
      "ताकतवर": 1894,
      "जाऊं": 1895,
      "कुरसी": 1896,
      "निकालते": 1897,
      "मुस्कुराया": 1898,
      "अम्रीका": 1899,
      "इलज़ाम": 1900,
      "कविता": 1901,
      "खर्च": 1902,
      "छलाँग": 1903,
      "मूँह": 1904,
      "लकड़ी": 1905,
      "व्यापार": 1906,
      "तुरंत": 1907,
      "जाऊँगी": 1908,
      "फ़ुटबॉल": 1909,
      "पेनसिल": 1910,
      "संतुष्ट": 1911,
      "कैंसर": 1912,
      "खटखटाया": 1913,
      "आवश्यकता": 1914,
      "आश्चर्य": 1915,
      "अधि": 1916,
      "अमेरिका": 1917,
      "अलावा": 1918,
      "अर्थ": 1919,
      "इलाज": 1920,
      "उल्टी": 1921,
      "खूबसूरत": 1922,
      "छिपा": 1923,
      "दफ़्तर": 1924,
      "नक्शा": 1925,
      "पचास": 1926,
      "पछतावा": 1927,
      "मक्खन": 1928,
      "वसीयत": 1929,
      "हैरान": 1930,
      "करवाया": 1931,
      "मुबारक": 1932,
      "मुसीबत": 1933,
      "रेलगाड़ी": 1934,
      "स्टॉप": 1935,
      "म्युज़ियम": 1936,
      "बातचीत": 1937,
      "पुस्तकालय": 1938,
      "शादीशुदा": 1939,
      "कब्रिस्तान": 1940,
      "मुलाक़ात": 1941,
      "ँतों": 1942,
      "ंध": 1943,
      "ंकि": 1944,
      "ंति": 1945,
      "ःखी": 1946,
      "अजन": 1947,
      "आं": 1948,
      "आइ": 1949,
      "आऊ": 1950,
      "आम": 1951,
      "आल": 1952,
      "आकर": 1953,
      "आइस": 1954,
      "आशा": 1955,
      "आदेश": 1956,
      "आमं": 1957,
      "आर्ट": 1958,
      "आबादी": 1959,
      "आभारी": 1960,
      "इट": 1961,
      "इले": 1962,
      "इकिल": 1963,
      "ईये": 1964,
      "ईमान": 1965,
      "उछ": 1966,
      "उबा": 1967,
      "उतर": 1968,
      "उँगा": 1969,
      "ऊन": 1970,
      "एसी": 1971,
      "ऐक्": 1972,
      "ओगे": 1973,
      "कला": 1974,
      "कमा": 1975,
      "कक्षा": 1976,
      "कष्ट": 1977,
      "कमाता": 1978,
      "खक": 1979,
      "ख्": 1980,
      "खड़": 1981,
      "खयाल": 1982,
      "खतरे": 1983,
      "गं": 1984,
      "गण": 1985,
      "गप": 1986,
      "गज़": 1987,
      "गें": 1988,
      "गति": 1989,
      "गलती": 1990,
      "घा": 1991,
      "घूर": 1992,
      "घूम": 1993,
      "चम": 1994,
      "चड़": 1995,
      "चती": 1996,
      "चकित": 1997,
      "चूर": 1998,
      "चढ़ा": 1999,
      "जारी": 2000,
      "जचती": 2001,
      "झग": 2002,
      "झकर": 2003,
      "टियाँ": 2004,
      "ट्रि": 2005,
      "टिंग": 2006,
      "डिया": 2007,
      "डूब": 2008,
      "ढूं": 2009,
      "णी": 2010,
      "तट": 2011,
      "तन": 2012,
      "तह": 2013,
      "तरी": 2014,
      "तमी": 2015,
      "थम": 2016,
      "थर": 2017,
      "थि": 2018,
      "थें": 2019,
      "दिए": 2020,
      "दों": 2021,
      "दफ़": 2022,
      "द्र": 2023,
      "धु": 2024,
      "धू": 2025,
      "धों": 2026,
      "धूल": 2027,
      "धान": 2028,
      "नु": 2029,
      "नता": 2030,
      "नही": 2031,
      "नज़": 2032,
      "नष्ट": 2033,
      "नर्म": 2034,
      "नसीसी": 2035,
      "पृ": 2036,
      "पौ": 2037,
      "पक्": 2038,
      "पों": 2039,
      "पंद": 2040,
      "पटी": 2041,
      "पस्थित": 2042,
      "फट": 2043,
      "फी": 2044,
      "फ्रे": 2045,
      "फँस": 2046,
      "बई": 2047,
      "बसे": 2048,
      "बरी": 2049,
      "बसी": 2050,
      "ब्रे": 2051,
      "बगी": 2052,
      "बयान": 2053,
      "बंध": 2054,
      "भु": 2055,
      "भविष": 2056,
      "मरा": 2057,
      "मले": 2058,
      "मनो": 2059,
      "मखाने": 2060,
      "मकिन": 2061,
      "महिला": 2062,
      "यब": 2063,
      "यल": 2064,
      "यॉ": 2065,
      "यही": 2066,
      "यले": 2067,
      "यदि": 2068,
      "यकल": 2069,
      "यंत्र": 2070,
      "यलेट": 2071,
      "रज": 2072,
      "रस": 2073,
      "रस्": 2074,
      "रिया": 2075,
      "रखो": 2076,
      "रंगी": 2077,
      "रपान": 2078,
      "रक्ष": 2079,
      "लन": 2080,
      "लदा": 2081,
      "लबी": 2082,
      "लूँगा": 2083,
      "वक": 2084,
      "वैसे": 2085,
      "शत": 2086,
      "शर": 2087,
      "शतक": 2088,
      "शिक": 2089,
      "सद": 2090,
      "सको": 2091,
      "सरा": 2092,
      "सले": 2093,
      "सलह": 2094,
      "सगाई": 2095,
      "सन्न": 2096,
      "सख्": 2097,
      "हरी": 2098,
      "हिर": 2099,
      "हस्ता": 2100,
      "हूर": 2101,
      "हँस": 2102,
      "हस्पताल": 2103,
      "हत्या": 2104,
      "हसीना": 2105,
      "़ा": 2106,
      "ूक": 2107,
      "ूंगी": 2108,
      "ेद": 2109,
      "ॉबे": 2110,
      "ोर": 2111,
      "ोता": 2112,
      "ोबार": 2113,
      "१८": 2114,
      "६०": 2115,
      "याँ": 2116,
      "यात्": 2117,
      "नेजर": 2118,
      "मेट": 2119,
      "मेक्": 2120,
      "ताल": 2121,
      "ताज़ी": 2122,
      "ताऊँगा": 2123,
      "तालाब": 2124,
      "सेब": 2125,
      "हीरा": 2126,
      "करा": 2127,
      "करु": 2128,
      "करदो": 2129,
      "करूंगी": 2130,
      "नामु": 2131,
      "नारे": 2132,
      "नाज़": 2133,
      "नाराज़": 2134,
      "मैरि": 2135,
      "मैनेजर": 2136,
      "कोयले": 2137,
      "क्री": 2138,
      "क्ट्रि": 2139,
      "केस": 2140,
      "मेंट": 2141,
      "होकर": 2142,
      "होगे": 2143,
      "होंगी": 2144,
      "मुका": 2145,
      "मुड़": 2146,
      "मुसला": 2147,
      "किए": 2148,
      "किसे": 2149,
      "कित्": 2150,
      "किलो": 2151,
      "किसान": 2152,
      "किनारे": 2153,
      "कीकात": 2154,
      "कीचड़": 2155,
      "काटो": 2156,
      "ड़वा": 2157,
      "मुझको": 2158,
      "जापानी": 2159,
      "जायदा": 2160,
      "क्यांश": 2161,
      "हाद": 2162,
      "हाल": 2163,
      "हाला": 2164,
      "हाथी": 2165,
      "हालत": 2166,
      "ज़त": 2167,
      "ज़ियाँ": 2168,
      "साबि": 2169,
      "साँस": 2170,
      "सांप": 2171,
      "साइकिल": 2172,
      "सायकल": 2173,
      "वाता": 2174,
      "वाही": 2175,
      "वानी": 2176,
      "वासी": 2177,
      "वास्त": 2178,
      "वाक्यांश": 2179,
      "चाहूँ": 2180,
      "चाकू": 2181,
      "राष्": 2182,
      "राप्त": 2183,
      "रासत": 2184,
      "स्तक": 2185,
      "स्पै": 2186,
      "स्टर": 2187,
      "स्वाद": 2188,
      "स्वत": 2189,
      "लाता": 2190,
      "लापर": 2191,
      "लाषा": 2192,
      "नीति": 2193,
      "रीय": 2194,
      "पाए": 2195,
      "पाते": 2196,
      "पालत": 2197,
      "पाएगा": 2198,
      "परियों": 2199,
      "परसों": 2200,
      "दें": 2201,
      "देनी": 2202,
      "देंगे": 2203,
      "फ़ान": 2204,
      "टॉयलेट": 2205,
      "लेखक": 2206,
      "एकदम": 2207,
      "दिमा": 2208,
      "दिशा": 2209,
      "दियों": 2210,
      "दिलाया": 2211,
      "दिल्ली": 2212,
      "बाप": 2213,
      "बाश": 2214,
      "बाकी": 2215,
      "बातें": 2216,
      "आपत्": 2217,
      "रहस्य": 2218,
      "र्वक": 2219,
      "दीवार": 2220,
      "समा": 2221,
      "समिति": 2222,
      "चाहट": 2223,
      "खाया": 2224,
      "सीमा": 2225,
      "माने": 2226,
      "मांच": 2227,
      "दोबार": 2228,
      "इसका": 2229,
      "लगेंगे": 2230,
      "कलकत्": 2231,
      "शाना": 2232,
      "शाली": 2233,
      "शांत": 2234,
      "शांति": 2235,
      "शाबाश": 2236,
      "दादी": 2237,
      "दाढ़ी": 2238,
      "दाँतों": 2239,
      "त्सव": 2240,
      "तोड़ी": 2241,
      "तोड़ो": 2242,
      "लीस": 2243,
      "वित": 2244,
      "विरो": 2245,
      "विष्": 2246,
      "विचार": 2247,
      "मित्र": 2248,
      "लोम": 2249,
      "लोहा": 2250,
      "लोगे": 2251,
      "मीटिंग": 2252,
      "पासपोर्ट": 2253,
      "उनमें": 2254,
      "उनपर": 2255,
      "म्रपान": 2256,
      "निश": 2257,
      "निशान": 2258,
      "नियर": 2259,
      "निशाना": 2260,
      "पहला": 2261,
      "पहनती": 2262,
      "श्न": 2263,
      "श्रे": 2264,
      "श्मन": 2265,
      "श्वर": 2266,
      "सुरक्षा": 2267,
      "सुरक्ष": 2268,
      "मतलब": 2269,
      "मतलबी": 2270,
      "्रॉबे": 2271,
      "छोड़े": 2272,
      "भाव": 2273,
      "रोमांच": 2274,
      "जेल": 2275,
      "हुईं": 2276,
      "देखो": 2277,
      "देखता": 2278,
      "बीवी": 2279,
      "सोकर": 2280,
      "पढ़ी": 2281,
      "पढ़ते": 2282,
      "रूम": 2283,
      "बिल्": 2284,
      "बियों": 2285,
      "्यता": 2286,
      "्यक्र": 2287,
      "जानने": 2288,
      "जानबू": 2289,
      "जीव": 2290,
      "जीना": 2291,
      "जीवित": 2292,
      "जीनियर": 2293,
      "पित": 2294,
      "बेटी": 2295,
      "बेकार": 2296,
      "बेटा": 2297,
      "चिड़ियाँ": 2298,
      "चिड़िया": 2299,
      "चिकित्": 2300,
      "अच्छाई": 2301,
      "तिक": 2302,
      "मिलकर": 2303,
      "मिलते": 2304,
      "मिलती": 2305,
      "मदर": 2306,
      "लिक": 2307,
      "लिफ़्": 2308,
      "लिपटा": 2309,
      "लगाए": 2310,
      "लगादी": 2311,
      "वेश": 2312,
      "सिको": 2313,
      "सितारे": 2314,
      "करतें": 2315,
      "समझे": 2316,
      "समझने": 2317,
      "समझिए": 2318,
      "समझदार": 2319,
      "अगस्त": 2320,
      "वीप": 2321,
      "वीडियो": 2322,
      "गईं": 2323,
      "कारण": 2324,
      "कारोबार": 2325,
      "कार्यक्र": 2326,
      "टेस्ट": 2327,
      "न्दा": 2328,
      "पूर्वक": 2329,
      "हुएँ": 2330,
      "जिन": 2331,
      "जिमखाने": 2332,
      "मानता": 2333,
      "चलने": 2334,
      "चलना": 2335,
      "चलती": 2336,
      "चलतें": 2337,
      "फ़्तार": 2338,
      "कहावत": 2339,
      "दुख": 2340,
      "दुखी": 2341,
      "दुःखी": 2342,
      "दुश्मन": 2343,
      "पुस्तक": 2344,
      "पुलीस": 2345,
      "पैसा": 2346,
      "पैरि": 2347,
      "प्रति": 2348,
      "प्रदू": 2349,
      "प्रथम": 2350,
      "प्रसन्न": 2351,
      "प्रश्न": 2352,
      "बहस": 2353,
      "ख़ा": 2354,
      "ख़तरे": 2355,
      "ख़त्म": 2356,
      "बुरा": 2357,
      "ट्रा": 2358,
      "मौज": 2359,
      "मौका": 2360,
      "सरल": 2361,
      "सालों": 2362,
      "देशों": 2363,
      "आएँ": 2364,
      "आएगी": 2365,
      "आएँगे": 2366,
      "ऊँग": 2367,
      "ऊँचा": 2368,
      "बंदर": 2369,
      "बंदूक": 2370,
      "खोलिए": 2371,
      "खोलो": 2372,
      "हित": 2373,
      "हिफ़ा": 2374,
      "हिरासत": 2375,
      "बरस": 2376,
      "माँगे": 2377,
      "माँगो": 2378,
      "उठना": 2379,
      "रिहा": 2380,
      "शुक्र": 2381,
      "ज़िंदगी": 2382,
      "ज़िन्दा": 2383,
      "खरीदा": 2384,
      "ानून": 2385,
      "आयात": 2386,
      "कहते": 2387,
      "कॉल": 2388,
      "कॉफी": 2389,
      "संपत्": 2390,
      "संख्या": 2391,
      "संबंध": 2392,
      "सूज": 2393,
      "सूट": 2394,
      "सूची": 2395,
      "सूरज": 2396,
      "सोचना": 2397,
      "इंजीनियर": 2398,
      "भूलूँगा": 2399,
      "मारने": 2400,
      "ज़ाना": 2401,
      "गुना": 2402,
      "गुड़िया": 2403,
      "गुलाब": 2404,
      "गुलदा": 2405,
      "पकड़ी": 2406,
      "प्यासा": 2407,
      "बनने": 2408,
      "बनना": 2409,
      "किसको": 2410,
      "किसकी": 2411,
      "सुनते": 2412,
      "रखदो": 2413,
      "ष्ठ": 2414,
      "ग़लतफ़ै": 2415,
      "खेलने": 2416,
      "खेलता": 2417,
      "डरता": 2418,
      "बदला": 2419,
      "बदबू": 2420,
      "बदतमी": 2421,
      "भरना": 2422,
      "वालों": 2423,
      "आईए": 2424,
      "आईएगा": 2425,
      "क़ानून": 2426,
      "जनसंख्या": 2427,
      "पत्तियों": 2428,
      "पत्थर": 2429,
      "बूढ़ी": 2430,
      "शहरों": 2431,
      "शानदार": 2432,
      "विदेशी": 2433,
      "बच्चें": 2434,
      "दूसरी": 2435,
      "जूस": 2436,
      "याददाश्त": 2437,
      "भागते": 2438,
      "भाग्य": 2439,
      "पीछा": 2440,
      "तैयारी": 2441,
      "उठाया": 2442,
      "उठाने": 2443,
      "पार्क": 2444,
      "बैठो": 2445,
      "तूफ़ान": 2446,
      "द्दी": 2447,
      "द्वीप": 2448,
      "प्ता": 2449,
      "प्राप्त": 2450,
      "मरने": 2451,
      "क्षर": 2452,
      "क्षि": 2453,
      "वाद्य": 2454,
      "निकली": 2455,
      "निकलने": 2456,
      "जिसके": 2457,
      "जिसपर": 2458,
      "दर्जन": 2459,
      "न्यू": 2460,
      "न्योता": 2461,
      "भूकम्प": 2462,
      "मोटी": 2463,
      "मोड़ो": 2464,
      "शिक्षा": 2465,
      "शौकीन": 2466,
      "स्ट्रॉबे": 2467,
      "उन्हे": 2468,
      "खिलाफ़": 2469,
      "सफ़ेद": 2470,
      "दिखता": 2471,
      "पहचानते": 2472,
      "भाषाएँ": 2473,
      "पूछने": 2474,
      "पूछना": 2475,
      "तैरकर": 2476,
      "खरीदने": 2477,
      "खरीदारी": 2478,
      "ष्ट्र": 2479,
      "अक्खड़": 2480,
      "गिरफ़्तार": 2481,
      "छूने": 2482,
      "पोस": 2483,
      "वर्षा": 2484,
      "सीखने": 2485,
      "डालना": 2486,
      "ख़रीदो": 2487,
      "ख़रीदीं": 2488,
      "आँखों": 2489,
      "उत्पा": 2490,
      "एँगे": 2491,
      "गलतियों": 2492,
      "घुल": 2493,
      "मशहूर": 2494,
      "मनाया": 2495,
      "शोक": 2496,
      "सच्ची": 2497,
      "स्वागत": 2498,
      "चुकें": 2499,
      "पड़ोसियों": 2500,
      "खरीदीं": 2501,
      "शब्दों": 2502,
      "शब्दकोश": 2503,
      "अभिने": 2504,
      "अभिमान": 2505,
      "अभिलाषा": 2506,
      "कूदो": 2507,
      "गहरी": 2508,
      "घोसले": 2509,
      "जुर्": 2510,
      "जुड़वा": 2511,
      "धोखा": 2512,
      "फूलों": 2513,
      "भेज": 2514,
      "लौटा": 2515,
      "रहतीं": 2516,
      "मातापिता": 2517,
      "चुकीं": 2518,
      "समझाया": 2519,
      "समझाउँगा": 2520,
      "कम्प्यू": 2521,
      "फ़िल्में": 2522,
      "ंत्रता": 2523,
      "आसपास": 2524,
      "जरूरी": 2525,
      "टूट": 2526,
      "टूटी": 2527,
      "बत्तियाँ": 2528,
      "कर्ज़": 2529,
      "नियमों": 2530,
      "पढ़ाना": 2531,
      "लिखना": 2532,
      "सिखाया": 2533,
      "फ़्रान्स": 2534,
      "फ़्रानसीसी": 2535,
      "खोलते": 2536,
      "व्यक्तिगत": 2537,
      "अनुपस्थित": 2538,
      "मज़ेदार": 2539,
      "उपयोग": 2540,
      "उतारने": 2541,
      "कंजूस": 2542,
      "चौंक": 2543,
      "झाना": 2544,
      "पंख": 2545,
      "प्रेम": 2546,
      "समुद्र": 2547,
      "हल्के": 2548,
      "हल्का": 2549,
      "१९७": 2550,
      "जाऊंगा": 2551,
      "सम्मान": 2552,
      "कुरसियाँ": 2553,
      "चुराने": 2554,
      "घुसाना": 2555,
      "दौड़ने": 2556,
      "कत्ल": 2557,
      "टुक": 2558,
      "तौलिया": 2559,
      "नहाता": 2560,
      "फैला": 2561,
      "फेंक": 2562,
      "बॉस": 2563,
      "बॉस्टन": 2564,
      "बढ़ाने": 2565,
      "शेर": 2566,
      "करूँगी": 2567,
      "पर्वत": 2568,
      "तोहफ़े": 2569,
      "निकले": 2570,
      "डाँट": 2571,
      "हिचकिचा": 2572,
      "हिचकिचाहट": 2573,
      "माँगनी": 2574,
      "खींची": 2575,
      "अड्डे": 2576,
      "उलटी": 2577,
      "चूहा": 2578,
      "पकाया": 2579,
      "पक्षी": 2580,
      "पश्चिमी": 2581,
      "बहादु": 2582,
      "भौतिक": 2583,
      "मर्ज़ी": 2584,
      "लैंड": 2585,
      "वस्तु": 2586,
      "हँसे": 2587,
      "हड़ताल": 2588,
      "हज़ारों": 2589,
      "नाश्ता": 2590,
      "कीमती": 2591,
      "रेशम": 2592,
      "स्पद": 2593,
      "स्तिथि": 2594,
      "पर्यावरण": 2595,
      "लगेगी": 2596,
      "सब्ज़ियाँ": 2597,
      "रोकने": 2598,
      "सिरदर्द": 2599,
      "संभव": 2600,
      "मार्ग": 2601,
      "क़ैदी": 2602,
      "मंदिरों": 2603,
      "छुट्टी": 2604,
      "आश्चर्यचकित": 2605,
      "अधिकार": 2606,
      "आलसी": 2607,
      "आइसक्री": 2608,
      "इटली": 2609,
      "इलेक्ट्रि": 2610,
      "ऐक्सीडेंट": 2611,
      "गणित": 2612,
      "गेंद": 2613,
      "डूबते": 2614,
      "ढूंढ": 2615,
      "तहकीकात": 2616,
      "तरीके": 2617,
      "धूम्रपान": 2618,
      "नहीँ": 2619,
      "नज़र": 2620,
      "पक्का": 2621,
      "पंद्": 2622,
      "बसीं": 2623,
      "भविष्य": 2624,
      "यॉर्क": 2625,
      "शिक़ा": 2626,
      "सरासर": 2627,
      "हिरण": 2628,
      "हस्ताक्षर": 2629,
      "मेक्सिको": 2630,
      "नामुमकिन": 2631,
      "मैरिज": 2632,
      "होंगीं": 2633,
      "मुकाबले": 2634,
      "मुड़कर": 2635,
      "मुसलाधार": 2636,
      "जायदाद": 2637,
      "हालांकि": 2638,
      "साबित": 2639,
      "वास्तव": 2640,
      "चाहूँगी": 2641,
      "राष्ट्": 2642,
      "स्पैनिश": 2643,
      "स्वतंत्रता": 2644,
      "लापरवाही": 2645,
      "पालतू": 2646,
      "दिमाग़": 2647,
      "दोबारा": 2648,
      "कलकत्ता": 2649,
      "विष्व": 2650,
      "सुरक्षित": 2651,
      "रोमांचक": 2652,
      "जानबूझकर": 2653,
      "लिफ़्ट": 2654,
      "कार्यक्रम": 2655,
      "पैरिस": 2656,
      "हिफ़ाज़त": 2657,
      "शुक्रवार": 2658,
      "संपत्ति": 2659,
      "गुलदान": 2660,
      "ग़लतफ़ैमी": 2661,
      "बदतमीज़": 2662,
      "स्ट्रॉबेरी": 2663,
      "अक्खड़पन": 2664,
      "कम्प्यूटर": 2665,
      "आइसक्रीम": 2666,
      "इलेक्ट्रिकल": 2667,
      "शिक़ायत": 2668,
      "\"।": 2669,
      "00": 2670,
      "100": 2671,
      "97": 2672,
      "?!": 2673,
      "ँक": 2674,
      "ँघ": 2675,
      "ँद": 2676,
      "ँको": 2677,
      "ँसी": 2678,
      "ँओं": 2679,
      "ँडे": 2680,
      "ंछ": 2681,
      "ंज": 2682,
      "ंट": 2683,
      "ंव": 2684,
      "ंह": 2685,
      "ंका": 2686,
      "ंजा": 2687,
      "ंपी": 2688,
      "ंकित": 2689,
      "ंसीसी": 2690,
      "ंयाँ": 2691,
      "अट": 2692,
      "अठ": 2693,
      "अह": 2694,
      "अना": 2695,
      "अड़": 2696,
      "अरे": 2697,
      "अनी": 2698,
      "अकल": 2699,
      "अनि": 2700,
      "असर": 2701,
      "अद्": 2702,
      "अज्ञ": 2703,
      "अरें": 2704,
      "अविश्व": 2705,
      "अस्वीकार": 2706,
      "अस्ति": 2707,
      "अकलम": 2708,
      "असुरक्षित": 2709,
      "अँडे": 2710,
      "आय": 2711,
      "आश": 2712,
      "आके": 2713,
      "आज़": 2714,
      "आपा": 2715,
      "आले": 2716,
      "आत्": 2717,
      "आमद": 2718,
      "आकार": 2719,
      "आऊँ": 2720,
      "आखि": 2721,
      "आयो": 2722,
      "आखरी": 2723,
      "आजाओ": 2724,
      "आज़ा": 2725,
      "आधी": 2726,
      "आधा": 2727,
      "आलू": 2728,
      "आधे": 2729,
      "आमने": 2730,
      "आत्म": 2731,
      "इक": 2732,
      "इप": 2733,
      "इम": 2734,
      "इव": 2735,
      "इश": 2736,
      "इया": 2737,
      "इक्": 2738,
      "इसी": 2739,
      "इंग": 2740,
      "इच्छ": 2741,
      "इजी": 2742,
      "इन्": 2743,
      "इमार": 2744,
      "इनाम": 2745,
      "इन्द": 2746,
      "इगज़": 2747,
      "ईश": 2748,
      "ईने": 2749,
      "ईनाम": 2750,
      "ईएगा": 2751,
      "ईश्वर": 2752,
      "उद": 2753,
      "उता": 2754,
      "उदा": 2755,
      "उपह": 2756,
      "उठी": 2757,
      "उद्": 2758,
      "उतनी": 2759,
      "उतरे": 2760,
      "उबले": 2761,
      "उगाई": 2762,
      "उचित": 2763,
      "ऊजी": 2764,
      "ऋतु": 2765,
      "एल": 2766,
      "एव": 2767,
      "एश": 2768,
      "एस": 2769,
      "एगी": 2770,
      "एड्": 2771,
      "एयर": 2772,
      "ऐन": 2773,
      "ऐम": 2774,
      "ऑक्": 2775,
      "ऑर्": 2776,
      "ओपन": 2777,
      "कहूँ": 2778,
      "कसम": 2779,
      "कयों": 2780,
      "कभार": 2781,
      "कप्र": 2782,
      "कटो": 2783,
      "कद्": 2784,
      "कपड़ो": 2785,
      "कलेट": 2786,
      "कदम": 2787,
      "कटाने": 2788,
      "कताऊँगा": 2789,
      "कप्ता": 2790,
      "खर": 2791,
      "खकर": 2792,
      "खरा": 2793,
      "खम्": 2794,
      "खट्": 2795,
      "खैर": 2796,
      "गफ": 2797,
      "गू": 2798,
      "गौ": 2799,
      "गना": 2800,
      "गवा": 2801,
      "गला": 2802,
      "ग्र": 2803,
      "गड़े": 2804,
      "गियाँ": 2805,
      "गरि": 2806,
      "गबन": 2807,
      "गवाह": 2808,
      "गैर": 2809,
      "गड्": 2810,
      "घम": 2811,
      "घि": 2812,
      "चॉ": 2813,
      "चना": 2814,
      "चों": 2815,
      "चंद": 2816,
      "चचे": 2817,
      "चट्": 2818,
      "चरि": 2819,
      "चपटी": 2820,
      "चखकर": 2821,
      "छट": 2822,
      "छटी": 2823,
      "छान": 2824,
      "छपे": 2825,
      "छाई": 2826,
      "छीन": 2827,
      "जम": 2828,
      "जर्": 2829,
      "जगे": 2830,
      "ज्य": 2831,
      "ज्यादा": 2832,
      "जहां": 2833,
      "जताई": 2834,
      "जलाती": 2835,
      "झि": 2836,
      "झे": 2837,
      "झाई": 2838,
      "झलक": 2839,
      "टल": 2840,
      "टह": 2841,
      "टें": 2842,
      "टर्": 2843,
      "टल्": 2844,
      "ट्रै": 2845,
      "टमेंट": 2846,
      "ठा": 2847,
      "ठहर": 2848,
      "ठियों": 2849,
      "ठहरे": 2850,
      "ठहरा": 2851,
      "डु": 2852,
      "डो": 2853,
      "डक्": 2854,
      "डरा": 2855,
      "डरो": 2856,
      "ड्यू": 2857,
      "ढक": 2858,
      "ढल": 2859,
      "ढा": 2860,
      "ढे": 2861,
      "णा": 2862,
      "ण्": 2863,
      "तता": 2864,
      "तका": 2865,
      "तस्": 2866,
      "तला": 2867,
      "तभी": 2868,
      "तबा": 2869,
      "तकल": 2870,
      "तत्": 2871,
      "तम्": 2872,
      "तकरी": 2873,
      "तमान": 2874,
      "तख़": 2875,
      "तौर": 2876,
      "तरीका": 2877,
      "तंत्र": 2878,
      "तलें": 2879,
      "थू": 2880,
      "थ्": 2881,
      "थके": 2882,
      "थका": 2883,
      "थप्": 2884,
      "थरूम": 2885,
      "दल": 2886,
      "दह": 2887,
      "दया": 2888,
      "दवा": 2889,
      "दबा": 2890,
      "दशा": 2891,
      "दस्त": 2892,
      "दयाल": 2893,
      "दंत": 2894,
      "दराज़": 2895,
      "दरें": 2896,
      "द्रो": 2897,
      "दसियों": 2898,
      "दक्षि": 2899,
      "धर": 2900,
      "धरे": 2901,
      "धती": 2902,
      "धर्म": 2903,
      "धनु": 2904,
      "नन": 2905,
      "नर": 2906,
      "नल": 2907,
      "नव": 2908,
      "नस": 2909,
      "नूँ": 2910,
      "नटी": 2911,
      "नलि": 2912,
      "नन्": 2913,
      "नियाँ": 2914,
      "नब्": 2915,
      "नयाद": 2916,
      "नशे": 2917,
      "पट": 2918,
      "पनी": 2919,
      "पसी": 2920,
      "पल्": 2921,
      "पमान": 2922,
      "पियाँ": 2923,
      "पेंट": 2924,
      "पयोग": 2925,
      "पटरी": 2926,
      "पसीना": 2927,
      "फा": 2928,
      "फ्": 2929,
      "फार": 2930,
      "फटा": 2931,
      "फंस": 2932,
      "बच": 2933,
      "बम": 2934,
      "बल": 2935,
      "बॅ": 2936,
      "बौ": 2937,
      "बकर": 2938,
      "बकी": 2939,
      "बड़": 2940,
      "बल्": 2941,
      "बची": 2942,
      "ब्य": 2943,
      "बजाए": 2944,
      "बचे": 2945,
      "बनो": 2946,
      "बजाते": 2947,
      "बटु": 2948,
      "बगैर": 2949,
      "बतख़": 2950,
      "भता": 2951,
      "भरे": 2952,
      "भरी": 2953,
      "भकाम": 2954,
      "भ्र": 2955,
      "भयान": 2956,
      "भ्यता": 2957,
      "मई": 2958,
      "मय": 2959,
      "मू": 2960,
      "मॉ": 2961,
      "महो": 2962,
      "मचा": 2963,
      "मला": 2964,
      "मरी": 2965,
      "मदी": 2966,
      "मंद": 2967,
      "मजे": 2968,
      "ममेरा": 2969,
      "मगर": 2970,
      "मकान": 2971,
      "यं": 2972,
      "यहीं": 2973,
      "यें": 2974,
      "यर्": 2975,
      "यत्": 2976,
      "यक़": 2977,
      "रहीं": 2978,
      "रफ़": 2979,
      "रसो": 2980,
      "रखे": 2981,
      "रियाँ": 2982,
      "रटना": 2983,
      "रझा": 2984,
      "रणा": 2985,
      "रबड़": 2986,
      "लय": 2987,
      "लॉ": 2988,
      "लता": 2989,
      "ल्ह": 2990,
      "लड़ा": 2991,
      "लची": 2992,
      "लन्": 2993,
      "लब्": 2994,
      "लेंगे": 2995,
      "लंच": 2996,
      "लैन": 2997,
      "लतियों": 2998,
      "लडी": 2999
    },
    "merges": [
      [
        "a",
        "r"
      ],
      [
        "e",
        "n"
      ],
      [
        "s",
        "t"
      ],
      [
        "ar",
        "t"
      ],
      [
        "en",
        "d"
      ],
      [
        "st",
        "art"
      ],
      [
        "ह",
        "ै"
      ],
      [
        "य",
        "ा"
      ],
      [
        "न",
        "े"
      ],
      [
        "म",
        "े"
      ],
      [
        "त",
        "ा"
      ],
      [
        "स",
        "े"
      ],
      [
        "ह",
        "ी"
      ],
      [
        "क",
        "र"
      ],
      [
        "न",
        "ा"
      ],
      [
        "ा",
        "र"
      ],
      [
        "म",
        "ै"
      ],
      [
        "क",
        "ो"
      ],
      [
        "मै",
        "ं"
      ],
      [
        "क",
        "्"
      ],
      [
        "क",
        "े"
      ],
      [
        "ही",
        "ं"
      ],
      [
        "मे",
        "ं"
      ],
      [
        "न",
        "हीं"
      ],
      [
        "ह",
        "ो"
      ],
      [
        "म",
        "ु"
      ],
      [
        "क",
        "ि"
      ],
      [
        "उ",
        "स"
      ],
      [
        "त",
        "ु"
      ],
      [
        "क",
        "ी"
      ],
      [
        "तु",
        "म"
      ],
      [
        "क",
        "ा"
      ],
      [
        "ड",
        "़"
      ],
      [
        "मु",
        "झ"
      ],
      [
        "व",
        "ह"
      ],
      [
        "ज",
        "ा"
      ],
      [
        "है",
        "ं"
      ],
      [
        "मुझ",
        "े"
      ],
      [
        "ह",
        "ु"
      ],
      [
        "त",
        "े"
      ],
      [
        "क्",
        "या"
      ],
      [
        "र",
        "े"
      ],
      [
        "ह",
        "ा"
      ],
      [
        "ज",
        "़"
      ],
      [
        "स",
        "ा"
      ],
      [
        "ग",
        "ा"
      ],
      [
        "ि",
        "ए"
      ],
      [
        "व",
        "ा"
      ],
      [
        "ू",
        "ँ"
      ],
      [
        "च",
        "ा"
      ],
      [
        "र",
        "ा"
      ],
      [
        "स",
        "्"
      ],
      [
        "ल",
        "ा"
      ],
      [
        "थ",
        "ा"
      ],
      [
        "न",
        "ी"
      ],
      [
        "र",
        "ी"
      ],
      [
        "्",
        "ह"
      ],
      [
        "प",
        "ा"
      ],
      [
        "भ",
        "ी"
      ],
      [
        "त",
        "ी"
      ],
      [
        "प",
        "र"
      ],
      [
        "ो",
        "ं"
      ],
      [
        "द",
        "े"
      ],
      [
        "फ",
        "़"
      ],
      [
        "तुम",
        "्ह"
      ],
      [
        "अ",
        "प"
      ],
      [
        "े",
        "ं"
      ],
      [
        "ह",
        "ूँ"
      ],
      [
        "ट",
        "ॉ"
      ],
      [
        "टॉ",
        "म"
      ],
      [
        "ब",
        "हु"
      ],
      [
        "ल",
        "े"
      ],
      [
        "बहु",
        "त"
      ],
      [
        "ए",
        "क"
      ],
      [
        "द",
        "ि"
      ],
      [
        "ब",
        "ा"
      ],
      [
        "ह",
        "म"
      ],
      [
        "ल",
        "िए"
      ],
      [
        "उस",
        "ने"
      ],
      [
        "आ",
        "प"
      ],
      [
        "य",
        "ह"
      ],
      [
        "स",
        "क"
      ],
      [
        "र",
        "ह"
      ],
      [
        "र",
        "्"
      ],
      [
        "ार",
        "े"
      ],
      [
        "द",
        "ी"
      ],
      [
        "स",
        "म"
      ],
      [
        "चा",
        "ह"
      ],
      [
        "ख",
        "ा"
      ],
      [
        "स",
        "ी"
      ],
      [
        "च",
        "्"
      ],
      [
        "म",
        "ा"
      ],
      [
        "ग",
        "या"
      ],
      [
        "द",
        "ो"
      ],
      [
        "इ",
        "स"
      ],
      [
        "मे",
        "रे"
      ],
      [
        "ल",
        "ग"
      ],
      [
        "क",
        "ल"
      ],
      [
        "श",
        "ा"
      ],
      [
        "ं",
        "द"
      ],
      [
        "क",
        "ु"
      ],
      [
        "औ",
        "र"
      ],
      [
        "तुम्ह",
        "ें"
      ],
      [
        "र",
        "हा"
      ],
      [
        "ि",
        "या"
      ],
      [
        "ं",
        "ग"
      ],
      [
        "द",
        "ा"
      ],
      [
        "त",
        "्"
      ],
      [
        "ड़",
        "ी"
      ],
      [
        "त",
        "ो"
      ],
      [
        "्",
        "या"
      ],
      [
        "अप",
        "ने"
      ],
      [
        "उ",
        "से"
      ],
      [
        "ल",
        "ी"
      ],
      [
        "हा",
        "ँ"
      ],
      [
        "मे",
        "री"
      ],
      [
        "ार",
        "ी"
      ],
      [
        "मैं",
        "ने"
      ],
      [
        "व",
        "ि"
      ],
      [
        "थ",
        "ी"
      ],
      [
        "म",
        "ि"
      ],
      [
        "कि",
        "या"
      ],
      [
        "ढ",
        "़"
      ],
      [
        "ल",
        "ो"
      ],
      [
        "कर",
        "ने"
      ],
      [
        "च्",
        "छ"
      ],
      [
        "अ",
        "च्छ"
      ],
      [
        "म",
        "ी"
      ],
      [
        "का",
        "म"
      ],
      [
        "पा",
        "स"
      ],
      [
        "उ",
        "न"
      ],
      [
        "ल",
        "्"
      ],
      [
        "म",
        "्"
      ],
      [
        "न",
        "ि"
      ],
      [
        "प",
        "ह"
      ],
      [
        "कर",
        "ना"
      ],
      [
        "अप",
        "नी"
      ],
      [
        "श",
        "्"
      ],
      [
        "स",
        "ु"
      ],
      [
        "प",
        "ता"
      ],
      [
        "य",
        "ों"
      ],
      [
        "ै",
        "से"
      ],
      [
        "ड़",
        "ा"
      ],
      [
        "सक",
        "ता"
      ],
      [
        "प",
        "स"
      ],
      [
        "ग",
        "े"
      ],
      [
        "ट",
        "ी"
      ],
      [
        "म",
        "त"
      ],
      [
        "को",
        "ई"
      ],
      [
        "सा",
        "थ"
      ],
      [
        "दि",
        "या"
      ],
      [
        "स",
        "ब"
      ],
      [
        "्",
        "रे"
      ],
      [
        "बा",
        "त"
      ],
      [
        "ग",
        "ी"
      ],
      [
        "्",
        "र"
      ],
      [
        "चाह",
        "िए"
      ],
      [
        "उस",
        "के"
      ],
      [
        "कु",
        "छ"
      ],
      [
        "घ",
        "र"
      ],
      [
        "ह",
        "र"
      ],
      [
        "सक",
        "ते"
      ],
      [
        "थ",
        "े"
      ],
      [
        "ब",
        "ार"
      ],
      [
        "उस",
        "की"
      ],
      [
        "तुम्ह",
        "ारे"
      ],
      [
        "छ",
        "ो"
      ],
      [
        "क",
        "म"
      ],
      [
        "भ",
        "ा"
      ],
      [
        "सम",
        "य"
      ],
      [
        "र",
        "ो"
      ],
      [
        "र",
        "ही"
      ],
      [
        "ज",
        "े"
      ],
      [
        "ता",
        "ब"
      ],
      [
        "रह",
        "े"
      ],
      [
        "अ",
        "भी"
      ],
      [
        "त",
        "क"
      ],
      [
        "मे",
        "रा"
      ],
      [
        "ड़",
        "े"
      ],
      [
        "हु",
        "ई"
      ],
      [
        "दे",
        "ख"
      ],
      [
        "प",
        "ी"
      ],
      [
        "ब",
        "ी"
      ],
      [
        "स",
        "ो"
      ],
      [
        "प",
        "ढ़"
      ],
      [
        "र",
        "ू"
      ],
      [
        "लग",
        "ता"
      ],
      [
        "क",
        "भी"
      ],
      [
        "च",
        "ी"
      ],
      [
        "ब",
        "ि"
      ],
      [
        "ल",
        "िया"
      ],
      [
        "्",
        "य"
      ],
      [
        "कि",
        "ताब"
      ],
      [
        "जा",
        "न"
      ],
      [
        "ज",
        "ी"
      ],
      [
        "प",
        "ि"
      ],
      [
        "ब",
        "े"
      ],
      [
        "कि",
        "त"
      ],
      [
        "आ",
        "ज"
      ],
      [
        "य",
        "हाँ"
      ],
      [
        "ू",
        "ल"
      ],
      [
        "ग",
        "ए"
      ],
      [
        "च",
        "ि"
      ],
      [
        "कर",
        "ता"
      ],
      [
        "हु",
        "आ"
      ],
      [
        "दि",
        "न"
      ],
      [
        "अच्छ",
        "ा"
      ],
      [
        "त",
        "ि"
      ],
      [
        "ब",
        "ो"
      ],
      [
        "ब",
        "जे"
      ],
      [
        "कि",
        "सी"
      ],
      [
        "मि",
        "ल"
      ],
      [
        "म",
        "द"
      ],
      [
        "ल",
        "ि"
      ],
      [
        "ल",
        "गा"
      ],
      [
        "दे",
        "खा"
      ],
      [
        "ज",
        "ो"
      ],
      [
        "ज",
        "ल्"
      ],
      [
        "व",
        "े"
      ],
      [
        "ह",
        "मे"
      ],
      [
        "आ",
        "द"
      ],
      [
        "च",
        "ु"
      ],
      [
        "त",
        "र"
      ],
      [
        "स",
        "ि"
      ],
      [
        "कर",
        "ी"
      ],
      [
        "कर",
        "ते"
      ],
      [
        "हो",
        "गा"
      ],
      [
        "उस",
        "को"
      ],
      [
        "ज़",
        "ी"
      ],
      [
        "सम",
        "झ"
      ],
      [
        "चाह",
        "ता"
      ],
      [
        "अ",
        "ग"
      ],
      [
        "व",
        "ी"
      ],
      [
        "जा",
        "ए"
      ],
      [
        "लो",
        "ग"
      ],
      [
        "पस",
        "ंद"
      ],
      [
        "मद",
        "द"
      ],
      [
        "ख",
        "ु"
      ],
      [
        "ग",
        "ई"
      ],
      [
        "ब",
        "ता"
      ],
      [
        "मुझ",
        "से"
      ],
      [
        "जा",
        "ने"
      ],
      [
        "क",
        "ार"
      ],
      [
        "ट",
        "े"
      ],
      [
        "ठ",
        "ी"
      ],
      [
        "ब",
        "च्"
      ],
      [
        "हो",
        "ता"
      ],
      [
        "न",
        "्"
      ],
      [
        "ि",
        "र"
      ],
      [
        "ि",
        "श"
      ],
      [
        "जा",
        "ना"
      ],
      [
        "प",
        "ू"
      ],
      [
        "प",
        "ैसे"
      ],
      [
        "य",
        "े"
      ],
      [
        "ष",
        "ा"
      ],
      [
        "कर",
        "ो"
      ],
      [
        "हु",
        "ए"
      ],
      [
        "्या",
        "दा"
      ],
      [
        "छो",
        "ड़"
      ],
      [
        "ज",
        "ि"
      ],
      [
        "ड",
        "ा"
      ],
      [
        "ज़",
        "्यादा"
      ],
      [
        "अप",
        "ना"
      ],
      [
        "मा",
        "न"
      ],
      [
        "च",
        "ल"
      ],
      [
        "च",
        "ला"
      ],
      [
        "ट",
        "ा"
      ],
      [
        "थ",
        "ो"
      ],
      [
        "द",
        "ू"
      ],
      [
        "हो",
        "ती"
      ],
      [
        "स्",
        "त"
      ],
      [
        "फ़",
        "्"
      ],
      [
        "क",
        "हा"
      ],
      [
        "ग",
        "़"
      ],
      [
        "च",
        "े"
      ],
      [
        "क्",
        "यों"
      ],
      [
        "ज",
        "ब"
      ],
      [
        "भ",
        "ार"
      ],
      [
        "उस",
        "से"
      ],
      [
        "गा",
        "ड़ी"
      ],
      [
        "इ",
        "न"
      ],
      [
        "द",
        "ु"
      ],
      [
        "प",
        "ु"
      ],
      [
        "ार",
        "ा"
      ],
      [
        "वा",
        "ज़"
      ],
      [
        "आप",
        "को"
      ],
      [
        "शा",
        "दी"
      ],
      [
        "पह",
        "ले"
      ],
      [
        "क",
        "हाँ"
      ],
      [
        "प",
        "ै"
      ],
      [
        "प",
        "्र"
      ],
      [
        "ब",
        "ह"
      ],
      [
        "ब",
        "ारे"
      ],
      [
        "तुम्ह",
        "ारी"
      ],
      [
        "भार",
        "त"
      ],
      [
        "अ",
        "ब"
      ],
      [
        "अ",
        "ंग"
      ],
      [
        "ख",
        "़"
      ],
      [
        "ब",
        "ु"
      ],
      [
        "ल",
        "ड़"
      ],
      [
        "व",
        "ार"
      ],
      [
        "उस",
        "का"
      ],
      [
        "पि",
        "ता"
      ],
      [
        "ट",
        "्"
      ],
      [
        "म",
        "ौ"
      ],
      [
        "स",
        "र"
      ],
      [
        "सा",
        "ल"
      ],
      [
        "दे",
        "श"
      ],
      [
        "आ",
        "ए"
      ],
      [
        "ऊ",
        "ँ"
      ],
      [
        "ख",
        "े"
      ],
      [
        "ट",
        "र"
      ],
      [
        "ब",
        "ंद"
      ],
      [
        "र",
        "त"
      ],
      [
        "स",
        "ारे"
      ],
      [
        "ै",
        "सा"
      ],
      [
        "वह",
        "ा"
      ],
      [
        "जा",
        "ता"
      ],
      [
        "रा",
        "त"
      ],
      [
        "अंग",
        "्रे"
      ],
      [
        "क",
        "ौ"
      ],
      [
        "ख",
        "ि"
      ],
      [
        "ख",
        "ो"
      ],
      [
        "ज",
        "िए"
      ],
      [
        "ल",
        "त"
      ],
      [
        "ह",
        "ि"
      ],
      [
        "िया",
        "ँ"
      ],
      [
        "आद",
        "मी"
      ],
      [
        "खु",
        "श"
      ],
      [
        "अंग्रे",
        "ज़ी"
      ],
      [
        "न",
        "ौ"
      ],
      [
        "ब",
        "र"
      ],
      [
        "वा",
        "पस"
      ],
      [
        "ती",
        "न"
      ],
      [
        "दे",
        "र"
      ],
      [
        "फ़",
        "ो"
      ],
      [
        "बा",
        "हर"
      ],
      [
        "हम",
        "ारे"
      ],
      [
        "खा",
        "ना"
      ],
      [
        "मा",
        "ँ"
      ],
      [
        "ँ",
        "च"
      ],
      [
        "ज",
        "वा"
      ],
      [
        "त",
        "ै"
      ],
      [
        "त",
        "ना"
      ],
      [
        "द",
        "र"
      ],
      [
        "य",
        "ो"
      ],
      [
        "तुम",
        "ने"
      ],
      [
        "सा",
        "न"
      ],
      [
        "कु",
        "त्"
      ],
      [
        "अग",
        "र"
      ],
      [
        "वहा",
        "ँ"
      ],
      [
        "उ",
        "ठ"
      ],
      [
        "ट",
        "्रे"
      ],
      [
        "ड",
        "ॉ"
      ],
      [
        "प",
        "ड़"
      ],
      [
        "ब",
        "ड़ा"
      ],
      [
        "र",
        "ि"
      ],
      [
        "श",
        "ु"
      ],
      [
        "ू",
        "ं"
      ],
      [
        "हो",
        "ं"
      ],
      [
        "तुम",
        "से"
      ],
      [
        "ज़",
        "ि"
      ],
      [
        "बो",
        "ल"
      ],
      [
        "जल्",
        "दी"
      ],
      [
        "हमे",
        "शा"
      ],
      [
        "फ़ो",
        "न"
      ],
      [
        "क",
        "ैसे"
      ],
      [
        "ख",
        "री"
      ],
      [
        "फ",
        "िर"
      ],
      [
        "ब",
        "्"
      ],
      [
        "ा",
        "न"
      ],
      [
        "कर",
        "ती"
      ],
      [
        "क्",
        "षा"
      ],
      [
        "फ़",
        "ी"
      ],
      [
        "हम",
        "ने"
      ],
      [
        "दो",
        "स्त"
      ],
      [
        "आ",
        "या"
      ],
      [
        "क",
        "ब"
      ],
      [
        "क",
        "ह"
      ],
      [
        "क",
        "ॉ"
      ],
      [
        "त",
        "रह"
      ],
      [
        "प",
        "े"
      ],
      [
        "प",
        "ार"
      ],
      [
        "प",
        "ड़े"
      ],
      [
        "ब",
        "ै"
      ],
      [
        "ब",
        "ना"
      ],
      [
        "ज़",
        "ार"
      ],
      [
        "ज़",
        "रू"
      ],
      [
        "कित",
        "ने"
      ],
      [
        "लोग",
        "ों"
      ],
      [
        "कौ",
        "न"
      ],
      [
        "जवा",
        "ब"
      ],
      [
        "आ",
        "ता"
      ],
      [
        "न",
        "ो"
      ],
      [
        "स",
        "ं"
      ],
      [
        "स",
        "ू"
      ],
      [
        "्",
        "हों"
      ],
      [
        "कि",
        "ल"
      ],
      [
        "वा",
        "ला"
      ],
      [
        "चाह",
        "ते"
      ],
      [
        "मि",
        "ला"
      ],
      [
        "उन",
        "्हों"
      ],
      [
        "सो",
        "च"
      ],
      [
        "उन्हों",
        "ने"
      ],
      [
        "अ",
        "के"
      ],
      [
        "इ",
        "ं"
      ],
      [
        "त",
        "म"
      ],
      [
        "द",
        "स"
      ],
      [
        "भ",
        "ूल"
      ],
      [
        "म",
        "ार"
      ],
      [
        "ा",
        "ई"
      ],
      [
        "को",
        "श"
      ],
      [
        "जा",
        "ओ"
      ],
      [
        "ज़",
        "ा"
      ],
      [
        "ूँ",
        "गा"
      ],
      [
        "ें",
        "गे"
      ],
      [
        "हम",
        "ारी"
      ],
      [
        "ंद",
        "र"
      ],
      [
        "सब",
        "से"
      ],
      [
        "बार",
        "िश"
      ],
      [
        "जल्",
        "द"
      ],
      [
        "दर",
        "वाज़"
      ],
      [
        "क",
        "ूल"
      ],
      [
        "ग",
        "ु"
      ],
      [
        "प",
        "क"
      ],
      [
        "प",
        "्या"
      ],
      [
        "ब",
        "न"
      ],
      [
        "म",
        "न"
      ],
      [
        "मु",
        "श्"
      ],
      [
        "कि",
        "स"
      ],
      [
        "चा",
        "न"
      ],
      [
        "स्",
        "ता"
      ],
      [
        "स्",
        "कूल"
      ],
      [
        "पा",
        "पा"
      ],
      [
        "फ़",
        "ा"
      ],
      [
        "बा",
        "द"
      ],
      [
        "आप",
        "की"
      ],
      [
        "अच्छ",
        "ी"
      ],
      [
        "सु",
        "न"
      ],
      [
        "नौ",
        "करी"
      ],
      [
        "मुश्",
        "किल"
      ],
      [
        "अ",
        "ं"
      ],
      [
        "उ",
        "म्"
      ],
      [
        "ध",
        "ी"
      ],
      [
        "प",
        "हु"
      ],
      [
        "र",
        "ख"
      ],
      [
        "ल",
        "म्"
      ],
      [
        "ष",
        "्"
      ],
      [
        "स",
        "च"
      ],
      [
        "ह",
        "ूं"
      ],
      [
        "ि",
        "क"
      ],
      [
        "कर",
        "नी"
      ],
      [
        "क्",
        "टर"
      ],
      [
        "की",
        "न"
      ],
      [
        "की",
        "जिए"
      ],
      [
        "स्",
        "वी"
      ],
      [
        "पा",
        "नी"
      ],
      [
        "सक",
        "ती"
      ],
      [
        "रह",
        "ता"
      ],
      [
        "र्",
        "क"
      ],
      [
        "ंग",
        "ी"
      ],
      [
        "अच्छ",
        "े"
      ],
      [
        "कम",
        "रे"
      ],
      [
        "जाए",
        "गा"
      ],
      [
        "ठी",
        "क"
      ],
      [
        "बच्",
        "चे"
      ],
      [
        "ग़",
        "लत"
      ],
      [
        "ट्",
        "ठी"
      ],
      [
        "खे",
        "ल"
      ],
      [
        "डॉ",
        "क्टर"
      ],
      [
        "कोश",
        "िश"
      ],
      [
        "ख",
        "ी"
      ],
      [
        "ख",
        "तम"
      ],
      [
        "च",
        "ो"
      ],
      [
        "ब",
        "र्"
      ],
      [
        "स",
        "भी"
      ],
      [
        "स",
        "ारी"
      ],
      [
        "ह",
        "में"
      ],
      [
        "मै",
        "री"
      ],
      [
        "हो",
        "ने"
      ],
      [
        "जा",
        "ती"
      ],
      [
        "स्",
        "ते"
      ],
      [
        "दे",
        "ना"
      ],
      [
        "भा",
        "ई"
      ],
      [
        "जान",
        "ता"
      ],
      [
        "चि",
        "ट्ठी"
      ],
      [
        "ऊँ",
        "गा"
      ],
      [
        "कुत्",
        "ता"
      ],
      [
        "ट्रे",
        "न"
      ],
      [
        "शु",
        "रू"
      ],
      [
        "ऐ",
        "सा"
      ],
      [
        "ग",
        "ि"
      ],
      [
        "ग",
        "र्"
      ],
      [
        "ट",
        "ो"
      ],
      [
        "ड",
        "र"
      ],
      [
        "ब",
        "द"
      ],
      [
        "भ",
        "र"
      ],
      [
        "म",
        "ह"
      ],
      [
        "य",
        "कीन"
      ],
      [
        "व",
        "र"
      ],
      [
        "ना",
        "म"
      ],
      [
        "वा",
        "ल"
      ],
      [
        "वा",
        "ले"
      ],
      [
        "वि",
        "श्"
      ],
      [
        "टी",
        "वी"
      ],
      [
        "ची",
        "ज़"
      ],
      [
        "थो",
        "ड़ी"
      ],
      [
        "थो",
        "ड़ा"
      ],
      [
        "ज़रू",
        "रत"
      ],
      [
        "प्या",
        "र"
      ],
      [
        "आ",
        "ई"
      ],
      [
        "क",
        "़"
      ],
      [
        "ज",
        "न"
      ],
      [
        "द",
        "ार"
      ],
      [
        "प",
        "त्"
      ],
      [
        "ब",
        "ू"
      ],
      [
        "भ",
        "ग"
      ],
      [
        "श",
        "हर"
      ],
      [
        "स",
        "ला"
      ],
      [
        "वा",
        "ई"
      ],
      [
        "पा",
        "न"
      ],
      [
        "पा",
        "ँच"
      ],
      [
        "तुम्ह",
        "ारा"
      ],
      [
        "खा",
        "ने"
      ],
      [
        "शा",
        "न"
      ],
      [
        "वि",
        "देश"
      ],
      [
        "उन",
        "की"
      ],
      [
        "बि",
        "ना"
      ],
      [
        "कित",
        "नी"
      ],
      [
        "चु",
        "का"
      ],
      [
        "बच्",
        "च"
      ],
      [
        "दू",
        "स"
      ],
      [
        "लड़",
        "की"
      ],
      [
        "मौ",
        "सम"
      ],
      [
        "फिर",
        "से"
      ],
      [
        "अ",
        "स"
      ],
      [
        "आ",
        "ने"
      ],
      [
        "इ",
        "तना"
      ],
      [
        "च",
        "र"
      ],
      [
        "ज",
        "ू"
      ],
      [
        "ढ",
        "ूँ"
      ],
      [
        "थ",
        "क"
      ],
      [
        "ध",
        "्या"
      ],
      [
        "ब",
        "स"
      ],
      [
        "ब",
        "ड़े"
      ],
      [
        "ल",
        "ती"
      ],
      [
        "स",
        "वाल"
      ],
      [
        "ौ",
        "र"
      ],
      [
        "या",
        "द"
      ],
      [
        "सा",
        "फ़"
      ],
      [
        "वा",
        "ह"
      ],
      [
        "दि",
        "खा"
      ],
      [
        "आप",
        "के"
      ],
      [
        "मा",
        "ल"
      ],
      [
        "लग",
        "ी"
      ],
      [
        "ंग",
        "े"
      ],
      [
        "भा",
        "ग"
      ],
      [
        "रो",
        "ज़"
      ],
      [
        "पी",
        "छ"
      ],
      [
        "किताब",
        "ें"
      ],
      [
        "बता",
        "या"
      ],
      [
        "तै",
        "या"
      ],
      [
        "उठ",
        "ा"
      ],
      [
        "पार",
        "्"
      ],
      [
        "बै",
        "ठ"
      ],
      [
        "ढूँ",
        "ढ"
      ],
      [
        "आ",
        "ओ"
      ],
      [
        "आ",
        "वाज़"
      ],
      [
        "क",
        "ै"
      ],
      [
        "ग",
        "र"
      ],
      [
        "ज",
        "ह"
      ],
      [
        "ज",
        "ंग"
      ],
      [
        "त",
        "ू"
      ],
      [
        "त",
        "स्वी"
      ],
      [
        "द",
        "्"
      ],
      [
        "प",
        "न"
      ],
      [
        "प",
        "्"
      ],
      [
        "म",
        "र"
      ],
      [
        "म",
        "ही"
      ],
      [
        "व",
        "जह"
      ],
      [
        "ह",
        "फ़्"
      ],
      [
        "ि",
        "यों"
      ],
      [
        "ू",
        "र"
      ],
      [
        "क्",
        "ष"
      ],
      [
        "हो",
        "गी"
      ],
      [
        "जा",
        "पान"
      ],
      [
        "वा",
        "द"
      ],
      [
        "चा",
        "य"
      ],
      [
        "रा",
        "ब"
      ],
      [
        "दि",
        "ल"
      ],
      [
        "मा",
        "फ़"
      ],
      [
        "दो",
        "नो"
      ],
      [
        "नि",
        "कल"
      ],
      [
        "सु",
        "बह"
      ],
      [
        "पि",
        "छ"
      ],
      [
        "मिल",
        "ने"
      ],
      [
        "आद",
        "त"
      ],
      [
        "जि",
        "स"
      ],
      [
        "पु",
        "रा"
      ],
      [
        "दरवाज़",
        "े"
      ],
      [
        "बच्च",
        "ों"
      ],
      [
        "ं",
        "क"
      ],
      [
        "अ",
        "फ़"
      ],
      [
        "आ",
        "ँ"
      ],
      [
        "आ",
        "मत"
      ],
      [
        "आ",
        "सान"
      ],
      [
        "इ",
        "से"
      ],
      [
        "ग",
        "ो"
      ],
      [
        "ग",
        "रे"
      ],
      [
        "घ",
        "ं"
      ],
      [
        "च",
        "ार"
      ],
      [
        "छ",
        "ः"
      ],
      [
        "ज",
        "न्"
      ],
      [
        "द",
        "र्"
      ],
      [
        "न",
        "्य"
      ],
      [
        "प",
        "रे"
      ],
      [
        "भ",
        "ू"
      ],
      [
        "म",
        "ो"
      ],
      [
        "य",
        "द"
      ],
      [
        "य",
        "दा"
      ],
      [
        "व",
        "्य"
      ],
      [
        "श",
        "न"
      ],
      [
        "श",
        "ि"
      ],
      [
        "श",
        "ौ"
      ],
      [
        "स",
        "ही"
      ],
      [
        "ॉ",
        "ल"
      ],
      [
        "मे",
        "ज़"
      ],
      [
        "हो",
        "ते"
      ],
      [
        "का",
        "फ़ी"
      ],
      [
        "मुझ",
        "पर"
      ],
      [
        "ते",
        "ज़ार"
      ],
      [
        "हा",
        "थ"
      ],
      [
        "स्",
        "ट"
      ],
      [
        "रह",
        "ते"
      ],
      [
        "दो",
        "पह"
      ],
      [
        "लग",
        "ती"
      ],
      [
        "शा",
        "यद"
      ],
      [
        "त्",
        "र"
      ],
      [
        "ढ़",
        "ा"
      ],
      [
        "उन",
        "्ह"
      ],
      [
        "टी",
        "चर"
      ],
      [
        "पढ़",
        "ाई"
      ],
      [
        "मिल",
        "ना"
      ],
      [
        "सि",
        "गरे"
      ],
      [
        "पू",
        "री"
      ],
      [
        "चला",
        "ना"
      ],
      [
        "इन",
        "सान"
      ],
      [
        "पिता",
        "जी"
      ],
      [
        "आए",
        "गा"
      ],
      [
        "खि",
        "ला"
      ],
      [
        "इं",
        "तेज़ार"
      ],
      [
        "दूस",
        "रे"
      ],
      [
        "पीछ",
        "े"
      ],
      [
        "तैया",
        "र"
      ],
      [
        "मही",
        "ने"
      ],
      [
        "हफ़्",
        "ते"
      ],
      [
        "पिछ",
        "ले"
      ],
      [
        "आमत",
        "ौर"
      ],
      [
        "जन्",
        "म"
      ],
      [
        "दोपह",
        "र"
      ],
      [
        "सिगरे",
        "ट"
      ],
      [
        "ँ",
        "व"
      ],
      [
        "अ",
        "ंदर"
      ],
      [
        "इ",
        "त"
      ],
      [
        "इ",
        "स्ते"
      ],
      [
        "उ",
        "ड़ा"
      ],
      [
        "ओ",
        "ं"
      ],
      [
        "क",
        "ृ"
      ],
      [
        "क",
        "ैसा"
      ],
      [
        "क",
        "पड़े"
      ],
      [
        "ख",
        "बर"
      ],
      [
        "च",
        "स्"
      ],
      [
        "ज",
        "ैसे"
      ],
      [
        "ट",
        "ै"
      ],
      [
        "ड",
        "ब्"
      ],
      [
        "ध",
        "ार"
      ],
      [
        "न",
        "दी"
      ],
      [
        "प",
        "या"
      ],
      [
        "प",
        "री"
      ],
      [
        "प",
        "ड़ी"
      ],
      [
        "ब",
        "चा"
      ],
      [
        "भ",
        "ि"
      ],
      [
        "य",
        "त"
      ],
      [
        "स",
        "फ़"
      ],
      [
        "ि",
        "त"
      ],
      [
        "या",
        "ल"
      ],
      [
        "ता",
        "र"
      ],
      [
        "मु",
        "ला"
      ],
      [
        "जा",
        "ते"
      ],
      [
        "वा",
        "स"
      ],
      [
        "स्",
        "या"
      ],
      [
        "ला",
        "स"
      ],
      [
        "पर",
        "ि"
      ],
      [
        "दि",
        "ख"
      ],
      [
        "लग",
        "भग"
      ],
      [
        "उन",
        "के"
      ],
      [
        "पह",
        "चान"
      ],
      [
        "श्",
        "त"
      ],
      [
        "्र",
        "ि"
      ],
      [
        "भा",
        "षा"
      ],
      [
        "देख",
        "ना"
      ],
      [
        "जान",
        "ते"
      ],
      [
        "कित",
        "ना"
      ],
      [
        "अग",
        "ले"
      ],
      [
        "पू",
        "छ"
      ],
      [
        "बह",
        "न"
      ],
      [
        "लड़",
        "के"
      ],
      [
        "तै",
        "र"
      ],
      [
        "खरी",
        "द"
      ],
      [
        "कॉ",
        "फ़ी"
      ],
      [
        "अके",
        "ले"
      ],
      [
        "उम्",
        "र"
      ],
      [
        "धी",
        "रे"
      ],
      [
        "ष्",
        "ट"
      ],
      [
        "गर्",
        "मी"
      ],
      [
        "पार्",
        "टी"
      ],
      [
        "दिल",
        "चस्"
      ],
      [
        "परे",
        "शान"
      ],
      [
        "जन्म",
        "दिन"
      ],
      [
        "इस्ते",
        "माल"
      ],
      [
        "कृ",
        "पया"
      ],
      [
        "परी",
        "क्षा"
      ],
      [
        "ं",
        "स"
      ],
      [
        "ं",
        "गा"
      ],
      [
        "अ",
        "क्"
      ],
      [
        "आ",
        "ग"
      ],
      [
        "आ",
        "ठ"
      ],
      [
        "ई",
        "कल"
      ],
      [
        "क",
        "मी"
      ],
      [
        "क",
        "म्"
      ],
      [
        "ग",
        "िर"
      ],
      [
        "घ",
        "ड़ी"
      ],
      [
        "च",
        "लो"
      ],
      [
        "छ",
        "ू"
      ],
      [
        "ज",
        "हाँ"
      ],
      [
        "ज",
        "ैसा"
      ],
      [
        "ट",
        "ना"
      ],
      [
        "ध",
        "ा"
      ],
      [
        "न",
        "िया"
      ],
      [
        "प",
        "त"
      ],
      [
        "प",
        "ो"
      ],
      [
        "भ",
        "रो"
      ],
      [
        "म",
        "छ"
      ],
      [
        "म",
        "ज़ा"
      ],
      [
        "य",
        "म"
      ],
      [
        "ल",
        "ू"
      ],
      [
        "व",
        "ो"
      ],
      [
        "व",
        "र्"
      ],
      [
        "स",
        "का"
      ],
      [
        "स",
        "ड़"
      ],
      [
        "स",
        "ों"
      ],
      [
        "ै",
        "र"
      ],
      [
        "से",
        "व"
      ],
      [
        "हो",
        "ंगे"
      ],
      [
        "का",
        "त"
      ],
      [
        "ते",
        "ं"
      ],
      [
        "सा",
        "ईकल"
      ],
      [
        "गा",
        "ँव"
      ],
      [
        "स्",
        "थ"
      ],
      [
        "स्",
        "टे"
      ],
      [
        "दे",
        "ने"
      ],
      [
        "फ़",
        "र्क"
      ],
      [
        "हूँ",
        "गा"
      ],
      [
        "ले",
        "ना"
      ],
      [
        "बा",
        "ल"
      ],
      [
        "आप",
        "से"
      ],
      [
        "आप",
        "का"
      ],
      [
        "सम",
        "ान"
      ],
      [
        "सी",
        "ख"
      ],
      [
        "दा",
        "श्त"
      ],
      [
        "सु",
        "ना"
      ],
      [
        "कम",
        "रा"
      ],
      [
        "पी",
        "ना"
      ],
      [
        "दिन",
        "ों"
      ],
      [
        "लि",
        "स"
      ],
      [
        "डा",
        "ल"
      ],
      [
        "मान",
        "ो"
      ],
      [
        "दू",
        "र"
      ],
      [
        "क्यों",
        "कि"
      ],
      [
        "दु",
        "निया"
      ],
      [
        "पु",
        "लिस"
      ],
      [
        "ख़",
        "री"
      ],
      [
        "पड़",
        "ता"
      ],
      [
        "फ़ा",
        "यदा"
      ],
      [
        "पहु",
        "ँच"
      ],
      [
        "तस्वी",
        "र"
      ],
      [
        "आँ",
        "ख"
      ],
      [
        "उन्ह",
        "ें"
      ],
      [
        "भरो",
        "सा"
      ],
      [
        "स्टे",
        "शन"
      ],
      [
        "अ",
        "न"
      ],
      [
        "अ",
        "चान"
      ],
      [
        "आ",
        "ना"
      ],
      [
        "आ",
        "रा"
      ],
      [
        "उ",
        "त्"
      ],
      [
        "ए",
        "ँ"
      ],
      [
        "ऐ",
        "से"
      ],
      [
        "ऐ",
        "सी"
      ],
      [
        "ग",
        "ल"
      ],
      [
        "घ",
        "ु"
      ],
      [
        "घ",
        "टना"
      ],
      [
        "ज",
        "्"
      ],
      [
        "ट",
        "िक"
      ],
      [
        "ड",
        "े"
      ],
      [
        "त",
        "ों"
      ],
      [
        "द",
        "वाई"
      ],
      [
        "ध",
        "े"
      ],
      [
        "न",
        "ई"
      ],
      [
        "ब",
        "ज"
      ],
      [
        "ब",
        "जा"
      ],
      [
        "म",
        "ं"
      ],
      [
        "म",
        "श"
      ],
      [
        "म",
        "ना"
      ],
      [
        "य",
        "क"
      ],
      [
        "य",
        "ु"
      ],
      [
        "र",
        "ु"
      ],
      [
        "व",
        "ैसा"
      ],
      [
        "श",
        "ो"
      ],
      [
        "श",
        "ब्"
      ],
      [
        "स",
        "च्"
      ],
      [
        "के",
        "ट"
      ],
      [
        "का",
        "न"
      ],
      [
        "का",
        "ल"
      ],
      [
        "जा",
        "कर"
      ],
      [
        "वा",
        "दा"
      ],
      [
        "रा",
        "ज"
      ],
      [
        "स्",
        "वा"
      ],
      [
        "ला",
        "या"
      ],
      [
        "री",
        "का"
      ],
      [
        "पा",
        "ल"
      ],
      [
        "पा",
        "या"
      ],
      [
        "फ़",
        "ि"
      ],
      [
        "फ़",
        "ै"
      ],
      [
        "र्",
        "ट"
      ],
      [
        "दी",
        "जिए"
      ],
      [
        "सम",
        "स्या"
      ],
      [
        "वि",
        "द"
      ],
      [
        "काम",
        "या"
      ],
      [
        "नि",
        "र्"
      ],
      [
        "बी",
        "मार"
      ],
      [
        "ची",
        "नी"
      ],
      [
        "लिया",
        "ँ"
      ],
      [
        "चु",
        "के"
      ],
      [
        "न्",
        "द"
      ],
      [
        "ग़",
        "लती"
      ],
      [
        "पै",
        "र"
      ],
      [
        "कुत्",
        "ते"
      ],
      [
        "पड़",
        "ो"
      ],
      [
        "खरी",
        "दी"
      ],
      [
        "कह",
        "ना"
      ],
      [
        "अके",
        "ला"
      ],
      [
        "रख",
        "ना"
      ],
      [
        "कीजिए",
        "गा"
      ],
      [
        "विश्",
        "वास"
      ],
      [
        "जू",
        "ते"
      ],
      [
        "दर्",
        "द"
      ],
      [
        "मज़ा",
        "क"
      ],
      [
        "अचान",
        "क"
      ],
      [
        "आरा",
        "म"
      ],
      [
        "ज्",
        "ञ"
      ],
      [
        "शब्",
        "द"
      ],
      [
        "ं",
        "ड"
      ],
      [
        "ं",
        "त"
      ],
      [
        "अ",
        "लग"
      ],
      [
        "अ",
        "जी"
      ],
      [
        "अ",
        "भि"
      ],
      [
        "आ",
        "ती"
      ],
      [
        "उ",
        "ड़"
      ],
      [
        "ए",
        "गा"
      ],
      [
        "क",
        "त"
      ],
      [
        "क",
        "ू"
      ],
      [
        "ख",
        "राब"
      ],
      [
        "ग",
        "ह"
      ],
      [
        "घ",
        "ो"
      ],
      [
        "च",
        "ह"
      ],
      [
        "छ",
        "ा"
      ],
      [
        "ज",
        "ु"
      ],
      [
        "ड",
        "ि"
      ],
      [
        "ड",
        "्"
      ],
      [
        "ध",
        "ो"
      ],
      [
        "ध",
        "न्य"
      ],
      [
        "न",
        "ट"
      ],
      [
        "न",
        "ों"
      ],
      [
        "फ",
        "ल"
      ],
      [
        "फ",
        "ूल"
      ],
      [
        "भ",
        "े"
      ],
      [
        "म",
        "ज़"
      ],
      [
        "र",
        "वि"
      ],
      [
        "ल",
        "ौ"
      ],
      [
        "व",
        "त"
      ],
      [
        "व",
        "ल"
      ],
      [
        "स",
        "प"
      ],
      [
        "स",
        "ौ"
      ],
      [
        "स",
        "ैर"
      ],
      [
        "ह",
        "वा"
      ],
      [
        "ी",
        "न"
      ],
      [
        "कर",
        "के"
      ],
      [
        "कर",
        "ूँगा"
      ],
      [
        "क्",
        "ति"
      ],
      [
        "मु",
        "स्"
      ],
      [
        "कि",
        "न"
      ],
      [
        "का",
        "ट"
      ],
      [
        "का",
        "श"
      ],
      [
        "ते",
        "ज़"
      ],
      [
        "हा",
        "ं"
      ],
      [
        "वा",
        "ना"
      ],
      [
        "चा",
        "लू"
      ],
      [
        "रा",
        "जा"
      ],
      [
        "रा",
        "ज़"
      ],
      [
        "ला",
        "ई"
      ],
      [
        "नी",
        "चे"
      ],
      [
        "हम",
        "ारा"
      ],
      [
        "रह",
        "ने"
      ],
      [
        "रह",
        "ना"
      ],
      [
        "रह",
        "ती"
      ],
      [
        "र्",
        "म"
      ],
      [
        "चाह",
        "ती"
      ],
      [
        "सी",
        "ब"
      ],
      [
        "मा",
        "ता"
      ],
      [
        "इस",
        "के"
      ],
      [
        "मी",
        "द"
      ],
      [
        "म्",
        "मे"
      ],
      [
        "छो",
        "टी"
      ],
      [
        "भा",
        "ल"
      ],
      [
        "देख",
        "ने"
      ],
      [
        "बी",
        "च"
      ],
      [
        "बि",
        "स्"
      ],
      [
        "जान",
        "वर"
      ],
      [
        "बे",
        "च"
      ],
      [
        "लि",
        "खी"
      ],
      [
        "लगा",
        "या"
      ],
      [
        "चु",
        "की"
      ],
      [
        "समझ",
        "ा"
      ],
      [
        "जाए",
        "गी"
      ],
      [
        "जि",
        "तना"
      ],
      [
        "कहा",
        "नी"
      ],
      [
        "पै",
        "सों"
      ],
      [
        "ख़",
        "याल"
      ],
      [
        "मौ",
        "त"
      ],
      [
        "खि",
        "ड़"
      ],
      [
        "खुश",
        "ी"
      ],
      [
        "पे",
        "ड़"
      ],
      [
        "दरवाज़",
        "ा"
      ],
      [
        "पक",
        "ड़"
      ],
      [
        "उम्",
        "मीद"
      ],
      [
        "पहु",
        "ँ"
      ],
      [
        "लम्",
        "बा"
      ],
      [
        "खेल",
        "ना"
      ],
      [
        "बर्",
        "दाश्त"
      ],
      [
        "बद",
        "ल"
      ],
      [
        "सला",
        "ह"
      ],
      [
        "अस",
        "फल"
      ],
      [
        "ध्या",
        "न"
      ],
      [
        "दिखा",
        "ई"
      ],
      [
        "पुरा",
        "ने"
      ],
      [
        "इत",
        "ने"
      ],
      [
        "मुला",
        "कात"
      ],
      [
        "कम्",
        "प"
      ],
      [
        "सड़",
        "क"
      ],
      [
        "टिक",
        "ट"
      ],
      [
        "फ़ि",
        "ल्"
      ],
      [
        "विद",
        "्या"
      ],
      [
        "अजी",
        "ब"
      ],
      [
        "चह",
        "िए"
      ],
      [
        "धन्य",
        "वाद"
      ],
      [
        "रवि",
        "वार"
      ],
      [
        "ँ",
        "स"
      ],
      [
        "ं",
        "च"
      ],
      [
        "ं",
        "त्र"
      ],
      [
        "अ",
        "ध्या"
      ],
      [
        "आ",
        "स"
      ],
      [
        "आ",
        "समान"
      ],
      [
        "ऑ",
        "स्"
      ],
      [
        "क",
        "प"
      ],
      [
        "क",
        "ना"
      ],
      [
        "क",
        "हीं"
      ],
      [
        "ख",
        "ार"
      ],
      [
        "ख",
        "ड़ा"
      ],
      [
        "ज",
        "रू"
      ],
      [
        "झ",
        "ी"
      ],
      [
        "ट",
        "ू"
      ],
      [
        "त",
        "नी"
      ],
      [
        "द",
        "ूँगा"
      ],
      [
        "न",
        "ती"
      ],
      [
        "प",
        "िया"
      ],
      [
        "ब",
        "त्"
      ],
      [
        "ब",
        "ड़ी"
      ],
      [
        "ब",
        "ारी"
      ],
      [
        "ब",
        "ढ़"
      ],
      [
        "म",
        "व"
      ],
      [
        "म",
        "ने"
      ],
      [
        "म",
        "ारी"
      ],
      [
        "म",
        "म्"
      ],
      [
        "य",
        "र"
      ],
      [
        "य",
        "ता"
      ],
      [
        "य",
        "हां"
      ],
      [
        "र",
        "ंग"
      ],
      [
        "स",
        "हा"
      ],
      [
        "स",
        "ंगी"
      ],
      [
        "ू",
        "ब"
      ],
      [
        "कर",
        "े"
      ],
      [
        "कर",
        "्"
      ],
      [
        "ना",
        "प"
      ],
      [
        "क्",
        "यो"
      ],
      [
        "क्",
        "लास"
      ],
      [
        "हो",
        "मव"
      ],
      [
        "रे",
        "ं"
      ],
      [
        "सा",
        "त"
      ],
      [
        "वा",
        "न"
      ],
      [
        "वा",
        "ली"
      ],
      [
        "चा",
        "ई"
      ],
      [
        "रा",
        "ई"
      ],
      [
        "स्",
        "सा"
      ],
      [
        "ले",
        "ट"
      ],
      [
        "रह",
        "ें"
      ],
      [
        "र्",
        "थी"
      ],
      [
        "र्",
        "घटना"
      ],
      [
        "खा",
        "ली"
      ],
      [
        "दो",
        "नों"
      ],
      [
        "वि",
        "ष"
      ],
      [
        "वि",
        "ज्ञ"
      ],
      [
        "मि",
        "ले"
      ],
      [
        "मि",
        "नट"
      ],
      [
        "ढ़",
        "े"
      ],
      [
        "नि",
        "स"
      ],
      [
        "नि",
        "रा"
      ],
      [
        "नि",
        "यम"
      ],
      [
        "सु",
        "ंदर"
      ],
      [
        "पी",
        "ने"
      ],
      [
        "पढ़",
        "ा"
      ],
      [
        "बे",
        "सब"
      ],
      [
        "चि",
        "ं"
      ],
      [
        "चि",
        "ल्"
      ],
      [
        "लि",
        "ख"
      ],
      [
        "लगा",
        "कर"
      ],
      [
        "सि",
        "खा"
      ],
      [
        "बता",
        "ओ"
      ],
      [
        "टे",
        "निस"
      ],
      [
        "बच्",
        "चा"
      ],
      [
        "पू",
        "रे"
      ],
      [
        "फ़्",
        "रा"
      ],
      [
        "दु",
        "र्घटना"
      ],
      [
        "पै",
        "दा"
      ],
      [
        "बु",
        "री"
      ],
      [
        "बु",
        "खार"
      ],
      [
        "खो",
        "ल"
      ],
      [
        "ट्रे",
        "लिया"
      ],
      [
        "ज़ि",
        "न्द"
      ],
      [
        "ज़ि",
        "म्मे"
      ],
      [
        "दोस्त",
        "ों"
      ],
      [
        "पड़े",
        "गी"
      ],
      [
        "जाओ",
        "गे"
      ],
      [
        "अं",
        "तर"
      ],
      [
        "लम्",
        "बी"
      ],
      [
        "चो",
        "र"
      ],
      [
        "चो",
        "री"
      ],
      [
        "विश्",
        "व"
      ],
      [
        "गर",
        "म"
      ],
      [
        "जंग",
        "ल"
      ],
      [
        "अफ़",
        "वाह"
      ],
      [
        "व्य",
        "क्ति"
      ],
      [
        "टै",
        "क्"
      ],
      [
        "डब्",
        "बे"
      ],
      [
        "परि",
        "वार"
      ],
      [
        "तैर",
        "ना"
      ],
      [
        "अक्",
        "सर"
      ],
      [
        "छू",
        "ट"
      ],
      [
        "पत",
        "ंग"
      ],
      [
        "आँख",
        "ें"
      ],
      [
        "अन",
        "ु"
      ],
      [
        "शो",
        "र"
      ],
      [
        "मज़",
        "े"
      ],
      [
        "मुस्",
        "कु"
      ],
      [
        "बिस्",
        "तर"
      ],
      [
        "खिड़",
        "की"
      ],
      [
        "विद्या",
        "र्थी"
      ],
      [
        "अध्या",
        "पक"
      ],
      [
        "ऑस्",
        "ट्रेलिया"
      ],
      [
        "मम्",
        "मी"
      ],
      [
        "संगी",
        "त"
      ],
      [
        "होमव",
        "र्क"
      ],
      [
        "ज़िन्द",
        "गी"
      ],
      [
        "ज़िम्मे",
        "दार"
      ],
      [
        "?",
        "\""
      ],
      [
        "ँ",
        "गे"
      ],
      [
        "अ",
        "मी"
      ],
      [
        "आ",
        "ख"
      ],
      [
        "आ",
        "ते"
      ],
      [
        "आ",
        "सा"
      ],
      [
        "आ",
        "गे"
      ],
      [
        "आ",
        "ऊँगा"
      ],
      [
        "उ",
        "प"
      ],
      [
        "उ",
        "तार"
      ],
      [
        "ओ",
        "र"
      ],
      [
        "क",
        "ं"
      ],
      [
        "क",
        "ई"
      ],
      [
        "क",
        "ठ"
      ],
      [
        "ख",
        "ट"
      ],
      [
        "ख",
        "ड़े"
      ],
      [
        "च",
        "ौ"
      ],
      [
        "च",
        "र्"
      ],
      [
        "छ",
        "ु"
      ],
      [
        "ज",
        "ै"
      ],
      [
        "ज",
        "ॉ"
      ],
      [
        "झ",
        "ा"
      ],
      [
        "झ",
        "ू"
      ],
      [
        "ट",
        "ों"
      ],
      [
        "त",
        "ब"
      ],
      [
        "त",
        "रे"
      ],
      [
        "द",
        "ौ"
      ],
      [
        "न",
        "त"
      ],
      [
        "न",
        "या"
      ],
      [
        "न",
        "म्"
      ],
      [
        "न",
        "गर"
      ],
      [
        "प",
        "ं"
      ],
      [
        "प",
        "हा"
      ],
      [
        "प",
        "ड़ा"
      ],
      [
        "प",
        "्रे"
      ],
      [
        "ब",
        "क"
      ],
      [
        "ब",
        "जाना"
      ],
      [
        "ब",
        "स्ता"
      ],
      [
        "ब",
        "ॉल"
      ],
      [
        "ब",
        "्रि"
      ],
      [
        "म",
        "ंग"
      ],
      [
        "म",
        "वार"
      ],
      [
        "य",
        "ू"
      ],
      [
        "र",
        "क्षा"
      ],
      [
        "ल",
        "ब"
      ],
      [
        "ल",
        "र"
      ],
      [
        "ल",
        "ें"
      ],
      [
        "ल",
        "ंद"
      ],
      [
        "व",
        "ही"
      ],
      [
        "ष",
        "ण"
      ],
      [
        "स",
        "के"
      ],
      [
        "स",
        "मु"
      ],
      [
        "स",
        "हम"
      ],
      [
        "ह",
        "ल्"
      ],
      [
        "ू",
        "म"
      ],
      [
        "ै",
        "न"
      ],
      [
        "१",
        "९"
      ],
      [
        "ने",
        "ं"
      ],
      [
        "ता",
        "रे"
      ],
      [
        "ता",
        "कत"
      ],
      [
        "क्",
        "र"
      ],
      [
        "क्",
        "रि"
      ],
      [
        "उस",
        "पर"
      ],
      [
        "की",
        "मत"
      ],
      [
        "ड़",
        "ो"
      ],
      [
        "ड़",
        "ियाँ"
      ],
      [
        "जा",
        "ऊ"
      ],
      [
        "जा",
        "ऊँगा"
      ],
      [
        "हा",
        "ज़"
      ],
      [
        "सा",
        "ब"
      ],
      [
        "सा",
        "ंस"
      ],
      [
        "सा",
        "मने"
      ],
      [
        "सा",
        "ढ़े"
      ],
      [
        "गा",
        "ना"
      ],
      [
        "स्",
        "पता"
      ],
      [
        "री",
        "ब"
      ],
      [
        "पा",
        "गल"
      ],
      [
        "फ़",
        "े"
      ],
      [
        "ें",
        "ट"
      ],
      [
        "ले",
        "किन"
      ],
      [
        "बा",
        "दी"
      ],
      [
        "हम",
        "को"
      ],
      [
        "दी",
        "ं"
      ],
      [
        "सम",
        "्"
      ],
      [
        "दो",
        "गे"
      ],
      [
        "इस",
        "से"
      ],
      [
        "लग",
        "ते"
      ],
      [
        "कु",
        "र"
      ],
      [
        "और",
        "त"
      ],
      [
        "ली",
        "ं"
      ],
      [
        "थी",
        "ं"
      ],
      [
        "ल्",
        "ली"
      ],
      [
        "नि",
        "काल"
      ],
      [
        "्र",
        "ै"
      ],
      [
        "छो",
        "टे"
      ],
      [
        "छो",
        "टा"
      ],
      [
        "रो",
        "प"
      ],
      [
        "देख",
        "भाल"
      ],
      [
        "पी",
        "ठ"
      ],
      [
        "बी",
        "मारी"
      ],
      [
        "सो",
        "मवार"
      ],
      [
        "पढ़",
        "ने"
      ],
      [
        "पढ़",
        "ना"
      ],
      [
        "रू",
        "प"
      ],
      [
        "बि",
        "ल"
      ],
      [
        "ति",
        "यों"
      ],
      [
        "बो",
        "ला"
      ],
      [
        "बो",
        "लो"
      ],
      [
        "चु",
        "रा"
      ],
      [
        "समझ",
        "ता"
      ],
      [
        "खु",
        "द"
      ],
      [
        "पू",
        "रा"
      ],
      [
        "करो",
        "गे"
      ],
      [
        "जि",
        "तनी"
      ],
      [
        "सर",
        "कार"
      ],
      [
        "हि",
        "साब"
      ],
      [
        "यो",
        "ग"
      ],
      [
        "डॉ",
        "लर"
      ],
      [
        "पे",
        "ट"
      ],
      [
        "बै",
        "ंक"
      ],
      [
        "ज़रू",
        "री"
      ],
      [
        "कौन",
        "सा"
      ],
      [
        "भूल",
        "ना"
      ],
      [
        "गु",
        "स्सा"
      ],
      [
        "किस",
        "ने"
      ],
      [
        "सुन",
        "कर"
      ],
      [
        "अं",
        "डे"
      ],
      [
        "स्वी",
        "कार"
      ],
      [
        "ग़लत",
        "ियाँ"
      ],
      [
        "टो",
        "क्यो"
      ],
      [
        "बू",
        "ढ़ा"
      ],
      [
        "अस",
        "ली"
      ],
      [
        "सवाल",
        "ों"
      ],
      [
        "आओ",
        "गे"
      ],
      [
        "अफ़",
        "सर"
      ],
      [
        "घं",
        "टों"
      ],
      [
        "भू",
        "ख"
      ],
      [
        "शौ",
        "क"
      ],
      [
        "खिला",
        "ड़ी"
      ],
      [
        "सफ़",
        "र"
      ],
      [
        "दिख",
        "ने"
      ],
      [
        "खरीद",
        "ना"
      ],
      [
        "दिलचस्",
        "प"
      ],
      [
        "दिलचस्",
        "पी"
      ],
      [
        "धा",
        "नी"
      ],
      [
        "मछ",
        "लियाँ"
      ],
      [
        "स्थ",
        "्य"
      ],
      [
        "सीख",
        "ना"
      ],
      [
        "सुना",
        "ई"
      ],
      [
        "ख़री",
        "द"
      ],
      [
        "घु",
        "सा"
      ],
      [
        "बजा",
        "य"
      ],
      [
        "मश",
        "ीन"
      ],
      [
        "रु",
        "क"
      ],
      [
        "सच्",
        "चाई"
      ],
      [
        "राज",
        "धानी"
      ],
      [
        "स्वा",
        "स्थ्य"
      ],
      [
        "फ़ै",
        "सला"
      ],
      [
        "कामया",
        "ब"
      ],
      [
        "डि",
        "यो"
      ],
      [
        "फ़िल्",
        "म"
      ],
      [
        "कना",
        "डा"
      ],
      [
        "झी",
        "ल"
      ],
      [
        "सहा",
        "यता"
      ],
      [
        "विज्ञ",
        "ान"
      ],
      [
        "निरा",
        "श"
      ],
      [
        "बेसब",
        "ॉल"
      ],
      [
        "चिं",
        "ता"
      ],
      [
        "मुस्कु",
        "रा"
      ],
      [
        "अमी",
        "र"
      ],
      [
        "आसा",
        "नी"
      ],
      [
        "दौ",
        "ड़"
      ],
      [
        "नम्",
        "बर"
      ],
      [
        "पहा",
        "ड़"
      ],
      [
        "मंग",
        "ल"
      ],
      [
        "लंद",
        "न"
      ],
      [
        "सहम",
        "त"
      ],
      [
        "स्पता",
        "ल"
      ],
      [
        "ं",
        "दी"
      ],
      [
        "अ",
        "ख"
      ],
      [
        "अ",
        "म्"
      ],
      [
        "अ",
        "फ़्"
      ],
      [
        "अ",
        "टै"
      ],
      [
        "आ",
        "व"
      ],
      [
        "आ",
        "श्"
      ],
      [
        "इ",
        "ल"
      ],
      [
        "इ",
        "रा"
      ],
      [
        "इ",
        "ति"
      ],
      [
        "उ",
        "तना"
      ],
      [
        "उ",
        "पन"
      ],
      [
        "उ",
        "धार"
      ],
      [
        "ऊ",
        "पर"
      ],
      [
        "ए",
        "ं"
      ],
      [
        "क",
        "त्"
      ],
      [
        "क",
        "वि"
      ],
      [
        "ख",
        "र्"
      ],
      [
        "ख",
        "टा"
      ],
      [
        "ग",
        "त"
      ],
      [
        "ग",
        "्"
      ],
      [
        "ग",
        "्या"
      ],
      [
        "ग",
        "रीब"
      ],
      [
        "च",
        "कि"
      ],
      [
        "च",
        "ले"
      ],
      [
        "च",
        "ली"
      ],
      [
        "छ",
        "ी"
      ],
      [
        "छ",
        "ला"
      ],
      [
        "ज",
        "ना"
      ],
      [
        "ज",
        "ों"
      ],
      [
        "ज",
        "ली"
      ],
      [
        "ज",
        "गह"
      ],
      [
        "ज",
        "हाज़"
      ],
      [
        "ट",
        "ु"
      ],
      [
        "ट",
        "ार"
      ],
      [
        "ड",
        "्रे"
      ],
      [
        "त",
        "ौ"
      ],
      [
        "त",
        "ज़ार"
      ],
      [
        "न",
        "हा"
      ],
      [
        "न",
        "फ़"
      ],
      [
        "न",
        "सि"
      ],
      [
        "न",
        "सीब"
      ],
      [
        "प",
        "ति"
      ],
      [
        "फ",
        "ै"
      ],
      [
        "फ",
        "ें"
      ],
      [
        "ब",
        "ॉ"
      ],
      [
        "ब",
        "ढ़ा"
      ],
      [
        "भ",
        "ो"
      ],
      [
        "भ",
        "ला"
      ],
      [
        "म",
        "ूँ"
      ],
      [
        "म",
        "जब"
      ],
      [
        "म",
        "चार"
      ],
      [
        "र",
        "हो"
      ],
      [
        "र",
        "ों"
      ],
      [
        "र",
        "खा"
      ],
      [
        "र",
        "हूँगा"
      ],
      [
        "ल",
        "क"
      ],
      [
        "व",
        "्या"
      ],
      [
        "श",
        "े"
      ],
      [
        "श",
        "राब"
      ],
      [
        "स",
        "ारा"
      ],
      [
        "ह",
        "त"
      ],
      [
        "ह",
        "द"
      ],
      [
        "ह",
        "ार"
      ],
      [
        "ह",
        "रे"
      ],
      [
        "ह",
        "रा"
      ],
      [
        "ह",
        "तर"
      ],
      [
        "ह",
        "नत"
      ],
      [
        "ि",
        "न"
      ],
      [
        "ु",
        "ट"
      ],
      [
        "।",
        "\""
      ],
      [
        "मे",
        "हनत"
      ],
      [
        "ता",
        "व"
      ],
      [
        "से",
        "हत"
      ],
      [
        "कर",
        "ूँ"
      ],
      [
        "ना",
        "क"
      ],
      [
        "के",
        "वल"
      ],
      [
        "हो",
        "ना"
      ],
      [
        "मु",
        "ताब"
      ],
      [
        "मु",
        "फ़्"
      ],
      [
        "तु",
        "र"
      ],
      [
        "का",
        "ला"
      ],
      [
        "का",
        "यत"
      ],
      [
        "ड़",
        "िया"
      ],
      [
        "जा",
        "ऊँ"
      ],
      [
        "हा",
        "स"
      ],
      [
        "सा",
        "मान"
      ],
      [
        "चा",
        "बी"
      ],
      [
        "चा",
        "हूँगा"
      ],
      [
        "रा",
        "य"
      ],
      [
        "रा",
        "स्ते"
      ],
      [
        "स्",
        "य"
      ],
      [
        "ला",
        "ब"
      ],
      [
        "ला",
        "यक"
      ],
      [
        "पर",
        "्"
      ],
      [
        "दे",
        "ते"
      ],
      [
        "फ़",
        "ुट"
      ],
      [
        "अप",
        "्रै"
      ],
      [
        "ले",
        "ज"
      ],
      [
        "ले",
        "ने"
      ],
      [
        "बा",
        "ज़ी"
      ],
      [
        "हम",
        "से"
      ],
      [
        "रह",
        "ेंगे"
      ],
      [
        "चाह",
        "े"
      ],
      [
        "चाह",
        "ेंगे"
      ],
      [
        "सी",
        "धे"
      ],
      [
        "इस",
        "को"
      ],
      [
        "इस",
        "लिए"
      ],
      [
        "कु",
        "ल"
      ],
      [
        "त्",
        "या"
      ],
      [
        "तो",
        "ह"
      ],
      [
        "्या",
        "स"
      ],
      [
        "वि",
        "मान"
      ],
      [
        "ढ़",
        "ी"
      ],
      [
        "मी",
        "ल"
      ],
      [
        "उन",
        "को"
      ],
      [
        "नि",
        "क"
      ],
      [
        "पह",
        "नी"
      ],
      [
        "श्",
        "चि"
      ],
      [
        "श्",
        "यक"
      ],
      [
        "सु",
        "न्"
      ],
      [
        "सु",
        "धार"
      ],
      [
        "पस",
        "ंदी"
      ],
      [
        "्र",
        "ो"
      ],
      [
        "बी",
        "स"
      ],
      [
        "सो",
        "ने"
      ],
      [
        "सो",
        "ते"
      ],
      [
        "ची",
        "न"
      ],
      [
        "बि",
        "जली"
      ],
      [
        "जी",
        "त"
      ],
      [
        "बे",
        "टे"
      ],
      [
        "बे",
        "हतर"
      ],
      [
        "आज",
        "कल"
      ],
      [
        "बो",
        "ली"
      ],
      [
        "मिल",
        "ेंगे"
      ],
      [
        "लि",
        "खा"
      ],
      [
        "तर",
        "फ़"
      ],
      [
        "तर",
        "नाक"
      ],
      [
        "खु",
        "ला"
      ],
      [
        "न्",
        "स"
      ],
      [
        "िर",
        "कार"
      ],
      [
        "छोड़",
        "ने"
      ],
      [
        "डा",
        "ँ"
      ],
      [
        "डा",
        "ला"
      ],
      [
        "चल",
        "ें"
      ],
      [
        "दू",
        "ध"
      ],
      [
        "इन",
        "कार"
      ],
      [
        "दु",
        "कान"
      ],
      [
        "प्र",
        "स्ता"
      ],
      [
        "बह",
        "नें"
      ],
      [
        "बु",
        "लाया"
      ],
      [
        "बु",
        "राई"
      ],
      [
        "लड़",
        "का"
      ],
      [
        "हि",
        "ला"
      ],
      [
        "हि",
        "चकि"
      ],
      [
        "बर",
        "फ़"
      ],
      [
        "माँ",
        "ग"
      ],
      [
        "यो",
        "जना"
      ],
      [
        "बोल",
        "ना"
      ],
      [
        "कॉ",
        "लेज"
      ],
      [
        "पे",
        "नसि"
      ],
      [
        "पड़े",
        "गा"
      ],
      [
        "बना",
        "या"
      ],
      [
        "बना",
        "ने"
      ],
      [
        "सं",
        "तु"
      ],
      [
        "सू",
        "स"
      ],
      [
        "सुन",
        "ने"
      ],
      [
        "खी",
        "ं"
      ],
      [
        "गि",
        "टार"
      ],
      [
        "मह",
        "ंगा"
      ],
      [
        "मह",
        "सूस"
      ],
      [
        "चीज़",
        "ें"
      ],
      [
        "क़",
        "ा"
      ],
      [
        "पत्",
        "नी"
      ],
      [
        "भग",
        "वान"
      ],
      [
        "ढूँढ",
        "ने"
      ],
      [
        "कै",
        "ं"
      ],
      [
        "कै",
        "सी"
      ],
      [
        "प्",
        "त"
      ],
      [
        "पुरा",
        "नी"
      ],
      [
        "गो",
        "ली"
      ],
      [
        "घं",
        "टे"
      ],
      [
        "शि",
        "कायत"
      ],
      [
        "शौ",
        "किया"
      ],
      [
        "डब्",
        "बा"
      ],
      [
        "कमी",
        "ज़"
      ],
      [
        "पो",
        "र्ट"
      ],
      [
        "वर्",
        "ष"
      ],
      [
        "पाल",
        "न"
      ],
      [
        "पड़ो",
        "स"
      ],
      [
        "घो",
        "ड़े"
      ],
      [
        "सप",
        "ना"
      ],
      [
        "बेच",
        "ैन"
      ],
      [
        "टिकट",
        "ें"
      ],
      [
        "जरू",
        "रत"
      ],
      [
        "बत्",
        "ती"
      ],
      [
        "कर्",
        "मचार"
      ],
      [
        "विष",
        "य"
      ],
      [
        "चिल्",
        "ला"
      ],
      [
        "आख",
        "िरकार"
      ],
      [
        "कठ",
        "िन"
      ],
      [
        "खट",
        "खटा"
      ],
      [
        "झू",
        "ठ"
      ],
      [
        "ब्रि",
        "ज"
      ],
      [
        "यू",
        "रोप"
      ],
      [
        "क्रि",
        "केट"
      ],
      [
        "बिल",
        "कुल"
      ],
      [
        "मंगल",
        "वार"
      ],
      [
        "अख",
        "बार"
      ],
      [
        "अफ़्",
        "रीका"
      ],
      [
        "अटै",
        "ची"
      ],
      [
        "आव",
        "श्यक"
      ],
      [
        "आश्",
        "चर्"
      ],
      [
        "इरा",
        "दा"
      ],
      [
        "इति",
        "हास"
      ],
      [
        "उपन",
        "्यास"
      ],
      [
        "ग्या",
        "रह"
      ],
      [
        "ड्रे",
        "स"
      ],
      [
        "नफ़",
        "रत"
      ],
      [
        "भो",
        "जन"
      ],
      [
        "मजब",
        "ूर"
      ],
      [
        "मुताब",
        "िक"
      ],
      [
        "मुफ़्",
        "त"
      ],
      [
        "अप्रै",
        "ल"
      ],
      [
        "सुन्",
        "दर"
      ],
      [
        "पसंदी",
        "ता"
      ],
      [
        "प्रस्ता",
        "व"
      ],
      [
        "कर्मचार",
        "ियों"
      ],
      [
        "ँ",
        "ग"
      ],
      [
        "ँ",
        "गा"
      ],
      [
        "ं",
        "प"
      ],
      [
        "ं",
        "श"
      ],
      [
        "ं",
        "डा"
      ],
      [
        "अ",
        "ध"
      ],
      [
        "अ",
        "र"
      ],
      [
        "अ",
        "मे"
      ],
      [
        "अ",
        "ला"
      ],
      [
        "अ",
        "र्"
      ],
      [
        "अ",
        "ड्"
      ],
      [
        "अ",
        "स्पताल"
      ],
      [
        "इ",
        "ला"
      ],
      [
        "उ",
        "ल"
      ],
      [
        "उ",
        "ल्"
      ],
      [
        "उ",
        "तारे"
      ],
      [
        "क",
        "ट"
      ],
      [
        "क",
        "ड़"
      ],
      [
        "ख",
        "न"
      ],
      [
        "ख",
        "ड़ी"
      ],
      [
        "ख",
        "्या"
      ],
      [
        "ख",
        "ूब"
      ],
      [
        "ख",
        "तरनाक"
      ],
      [
        "ग",
        "लत"
      ],
      [
        "च",
        "ू"
      ],
      [
        "च",
        "ढ़"
      ],
      [
        "च",
        "श्"
      ],
      [
        "छ",
        "त"
      ],
      [
        "छ",
        "ि"
      ],
      [
        "छ",
        "ता"
      ],
      [
        "ज",
        "र"
      ],
      [
        "ज",
        "ल"
      ],
      [
        "झ",
        "ु"
      ],
      [
        "ट",
        "री"
      ],
      [
        "ठ",
        "ंड"
      ],
      [
        "ठ",
        "ंडा"
      ],
      [
        "ड",
        "ी"
      ],
      [
        "ड",
        "ेंट"
      ],
      [
        "ण",
        "य"
      ],
      [
        "त",
        "ियाँ"
      ],
      [
        "थ",
        "रा"
      ],
      [
        "द",
        "म"
      ],
      [
        "द",
        "ारी"
      ],
      [
        "द",
        "फ़्"
      ],
      [
        "ध",
        "्य"
      ],
      [
        "ध",
        "ाई"
      ],
      [
        "न",
        "ए"
      ],
      [
        "न",
        "म"
      ],
      [
        "न",
        "क्"
      ],
      [
        "न",
        "कल"
      ],
      [
        "प",
        "का"
      ],
      [
        "प",
        "चा"
      ],
      [
        "प",
        "टा"
      ],
      [
        "प",
        "क्ष"
      ],
      [
        "प",
        "श्चि"
      ],
      [
        "प",
        "छता"
      ],
      [
        "ब",
        "हा"
      ],
      [
        "ब",
        "नी"
      ],
      [
        "ब",
        "ले"
      ],
      [
        "ब",
        "्र"
      ],
      [
        "ब",
        "धाई"
      ],
      [
        "भ",
        "ौ"
      ],
      [
        "भ",
        "ारी"
      ],
      [
        "म",
        "क्"
      ],
      [
        "म",
        "हा"
      ],
      [
        "म",
        "र्"
      ],
      [
        "म",
        "ारा"
      ],
      [
        "म",
        "ध्य"
      ],
      [
        "र",
        "वाना"
      ],
      [
        "ल",
        "ह"
      ],
      [
        "ल",
        "ै"
      ],
      [
        "ल",
        "ूँ"
      ],
      [
        "व",
        "ै"
      ],
      [
        "व",
        "स्"
      ],
      [
        "व",
        "सी"
      ],
      [
        "श",
        "क"
      ],
      [
        "श",
        "र्म"
      ],
      [
        "स",
        "त"
      ],
      [
        "स",
        "व"
      ],
      [
        "स",
        "ह"
      ],
      [
        "स",
        "र्"
      ],
      [
        "स",
        "ियाँ"
      ],
      [
        "स",
        "ज़ा"
      ],
      [
        "ह",
        "ँ"
      ],
      [
        "ह",
        "े"
      ],
      [
        "ह",
        "ड़"
      ],
      [
        "ह",
        "ज़ार"
      ],
      [
        "ह",
        "वाई"
      ],
      [
        "ि",
        "ंग"
      ],
      [
        "ि",
        "ति"
      ],
      [
        "ु",
        "काम"
      ],
      [
        "ू",
        "न"
      ],
      [
        "है",
        "रा"
      ],
      [
        "या",
        "न"
      ],
      [
        "ता",
        "ई"
      ],
      [
        "कर",
        "वा"
      ],
      [
        "कर",
        "ें"
      ],
      [
        "कर",
        "ेंगे"
      ],
      [
        "कर",
        "वाना"
      ],
      [
        "ना",
        "नी"
      ],
      [
        "ना",
        "श्"
      ],
      [
        "क्",
        "त"
      ],
      [
        "क्",
        "लब"
      ],
      [
        "के",
        "क"
      ],
      [
        "हो",
        "श"
      ],
      [
        "हो",
        "नी"
      ],
      [
        "मु",
        "र्"
      ],
      [
        "मु",
        "बार"
      ],
      [
        "मु",
        "सीब"
      ],
      [
        "की",
        "म"
      ],
      [
        "तुम",
        "को"
      ],
      [
        "का",
        "ले"
      ],
      [
        "जा",
        "या"
      ],
      [
        "ते",
        "ल"
      ],
      [
        "ते",
        "ज़ी"
      ],
      [
        "रे",
        "श"
      ],
      [
        "रे",
        "सा"
      ],
      [
        "रे",
        "लगा"
      ],
      [
        "रे",
        "डियो"
      ],
      [
        "ज़",
        "ुकाम"
      ],
      [
        "गा",
        "ई"
      ],
      [
        "गा",
        "ते"
      ],
      [
        "गा",
        "ड़ियाँ"
      ],
      [
        "वा",
        "लिया"
      ],
      [
        "चा",
        "वल"
      ],
      [
        "रा",
        "ह"
      ],
      [
        "रा",
        "ज़ी"
      ],
      [
        "रा",
        "स्ता"
      ],
      [
        "स्",
        "प"
      ],
      [
        "स्",
        "टॉ"
      ],
      [
        "स्",
        "ति"
      ],
      [
        "ला",
        "ल"
      ],
      [
        "ला",
        "ना"
      ],
      [
        "ला",
        "ती"
      ],
      [
        "नी",
        "ंद"
      ],
      [
        "नी",
        "ली"
      ],
      [
        "पा",
        "य"
      ],
      [
        "पा",
        "ता"
      ],
      [
        "ती",
        "ं"
      ],
      [
        "ती",
        "स"
      ],
      [
        "ती",
        "क्षा"
      ],
      [
        "पर",
        "्या"
      ],
      [
        "दे",
        "ता"
      ],
      [
        "दे",
        "गी"
      ],
      [
        "फ़",
        "िक"
      ],
      [
        "ले",
        "ता"
      ],
      [
        "ले",
        "नी"
      ],
      [
        "बा",
        "ँ"
      ],
      [
        "बा",
        "ज़ार"
      ],
      [
        "आप",
        "ने"
      ],
      [
        "खा",
        "ता"
      ],
      [
        "खा",
        "ते"
      ],
      [
        "सी",
        "ना"
      ],
      [
        "सी",
        "सी"
      ],
      [
        "सी",
        "डेंट"
      ],
      [
        "लग",
        "े"
      ],
      [
        "कल",
        "म"
      ],
      [
        "शा",
        "म"
      ],
      [
        "ंद",
        "गी"
      ],
      [
        "और",
        "तों"
      ],
      [
        "त्",
        "म"
      ],
      [
        "तो",
        "ड़"
      ],
      [
        "वि",
        "वाह"
      ],
      [
        "मि",
        "ली"
      ],
      [
        "उन",
        "से"
      ],
      [
        "उन",
        "का"
      ],
      [
        "म्",
        "यु"
      ],
      [
        "नि",
        "भा"
      ],
      [
        "पह",
        "ने"
      ],
      [
        "पह",
        "ली"
      ],
      [
        "सु",
        "नी"
      ],
      [
        "सु",
        "थरा"
      ],
      [
        "टी",
        "म"
      ],
      [
        "सब",
        "्"
      ],
      [
        "बात",
        "ची"
      ],
      [
        "बार",
        "ह"
      ],
      [
        "भा",
        "षण"
      ],
      [
        "रो",
        "क"
      ],
      [
        "रो",
        "या"
      ],
      [
        "रो",
        "ने"
      ],
      [
        "जे",
        "ब"
      ],
      [
        "देख",
        "कर"
      ],
      [
        "देख",
        "ते"
      ],
      [
        "देख",
        "ें"
      ],
      [
        "सो",
        "चा"
      ],
      [
        "ची",
        "जों"
      ],
      [
        "बि",
        "ल्ली"
      ],
      [
        "्य",
        "ू"
      ],
      [
        "जान",
        "ना"
      ],
      [
        "जी",
        "ते"
      ],
      [
        "बे",
        "होश"
      ],
      [
        "चि",
        "त"
      ],
      [
        "बो",
        "र"
      ],
      [
        "लि",
        "यों"
      ],
      [
        "लगा",
        "ई"
      ],
      [
        "चु",
        "ना"
      ],
      [
        "सि",
        "र"
      ],
      [
        "सि",
        "यों"
      ],
      [
        "समझ",
        "ो"
      ],
      [
        "अग",
        "ली"
      ],
      [
        "जाए",
        "ं"
      ],
      [
        "जाए",
        "ँगे"
      ],
      [
        "खु",
        "ल"
      ],
      [
        "बता",
        "ने"
      ],
      [
        "टे",
        "रेसा"
      ],
      [
        "न्",
        "न"
      ],
      [
        "ये",
        "न"
      ],
      [
        "छोड़",
        "ो"
      ],
      [
        "छोड़",
        "ना"
      ],
      [
        "जि",
        "से"
      ],
      [
        "डा",
        "क"
      ],
      [
        "मान",
        "ते"
      ],
      [
        "टा",
        "ई"
      ],
      [
        "टा",
        "ने"
      ],
      [
        "थो",
        "ड़े"
      ],
      [
        "होती",
        "ं"
      ],
      [
        "स्त",
        "काल"
      ],
      [
        "पु",
        "स्तकाल"
      ],
      [
        "शादी",
        "शु"
      ],
      [
        "प्र",
        "तीक्षा"
      ],
      [
        "मौ",
        "के"
      ],
      [
        "खे",
        "त"
      ],
      [
        "वहा",
        "ं"
      ],
      [
        "रात",
        "भर"
      ],
      [
        "कौ",
        "आ"
      ],
      [
        "खि",
        "ल"
      ],
      [
        "उठ",
        "ता"
      ],
      [
        "उठ",
        "ते"
      ],
      [
        "रि",
        "का"
      ],
      [
        "ूं",
        "गा"
      ],
      [
        "ज़ि",
        "यम"
      ],
      [
        "बोल",
        "ने"
      ],
      [
        "बोल",
        "ता"
      ],
      [
        "बोल",
        "ते"
      ],
      [
        "कब",
        "्रि"
      ],
      [
        "कह",
        "ने"
      ],
      [
        "कौन",
        "सी"
      ],
      [
        "सं",
        "भ"
      ],
      [
        "सं",
        "देश"
      ],
      [
        "सू",
        "रत"
      ],
      [
        "सोच",
        "ता"
      ],
      [
        "इं",
        "तज़ार"
      ],
      [
        "मार",
        "्"
      ],
      [
        "ज़ा",
        "म"
      ],
      [
        "जल्द",
        "बाज़ी"
      ],
      [
        "पक",
        "ड़ा"
      ],
      [
        "स्ता",
        "न"
      ],
      [
        "अं",
        "त"
      ],
      [
        "धी",
        "मी"
      ],
      [
        "लम्",
        "बे"
      ],
      [
        "सकती",
        "ं"
      ],
      [
        "चो",
        "ट"
      ],
      [
        "बर्",
        "बादी"
      ],
      [
        "बर्",
        "ताव"
      ],
      [
        "गि",
        "ंग"
      ],
      [
        "गि",
        "लास"
      ],
      [
        "गर्",
        "म"
      ],
      [
        "टो",
        "पी"
      ],
      [
        "मह",
        "ंगी"
      ],
      [
        "वर",
        "ण"
      ],
      [
        "क़",
        "ै"
      ],
      [
        "पत्",
        "र"
      ],
      [
        "दिखा",
        "या"
      ],
      [
        "माल",
        "ूम"
      ],
      [
        "बैठ",
        "ा"
      ],
      [
        "बैठ",
        "िए"
      ],
      [
        "तस्वी",
        "रें"
      ],
      [
        "द्",
        "ध"
      ],
      [
        "जिस",
        "से"
      ],
      [
        "भू",
        "त"
      ],
      [
        "व्य",
        "स्त"
      ],
      [
        "स्ट",
        "न"
      ],
      [
        "लगती",
        "ं"
      ],
      [
        "इत",
        "नी"
      ],
      [
        "मुला",
        "क़ा"
      ],
      [
        "पहचान",
        "ता"
      ],
      [
        "मछ",
        "ली"
      ],
      [
        "स्थ",
        "ित"
      ],
      [
        "उत्",
        "तर"
      ],
      [
        "बज",
        "ने"
      ],
      [
        "मं",
        "दि"
      ],
      [
        "कामया",
        "बी"
      ],
      [
        "निर्",
        "भर"
      ],
      [
        "निर्",
        "णय"
      ],
      [
        "छा",
        "या"
      ],
      [
        "धो",
        "ओ"
      ],
      [
        "भे",
        "जा"
      ],
      [
        "लौ",
        "ट"
      ],
      [
        "सप",
        "ने"
      ],
      [
        "पहुँ",
        "चा"
      ],
      [
        "पहुँ",
        "चे"
      ],
      [
        "बदल",
        "ने"
      ],
      [
        "कम्प",
        "नी"
      ],
      [
        "नती",
        "जे"
      ],
      [
        "पिया",
        "नो"
      ],
      [
        "करे",
        "गा"
      ],
      [
        "टैक्",
        "स"
      ],
      [
        "टैक्",
        "सी"
      ],
      [
        "छु",
        "ट्"
      ],
      [
        "जै",
        "सी"
      ],
      [
        "जॉ",
        "गिंग"
      ],
      [
        "पं",
        "छी"
      ],
      [
        "समु",
        "ंदर"
      ],
      [
        "ताकत",
        "वर"
      ],
      [
        "जाऊ",
        "ं"
      ],
      [
        "कुर",
        "सी"
      ],
      [
        "निकाल",
        "ते"
      ],
      [
        "मुस्कुरा",
        "या"
      ],
      [
        "अम्",
        "रीका"
      ],
      [
        "इल",
        "ज़ाम"
      ],
      [
        "कवि",
        "ता"
      ],
      [
        "खर्",
        "च"
      ],
      [
        "छला",
        "ँग"
      ],
      [
        "मूँ",
        "ह"
      ],
      [
        "लक",
        "ड़ी"
      ],
      [
        "व्या",
        "पार"
      ],
      [
        "तुर",
        "ंत"
      ],
      [
        "जाऊँ",
        "गी"
      ],
      [
        "फ़ुट",
        "बॉल"
      ],
      [
        "पेनसि",
        "ल"
      ],
      [
        "संतु",
        "ष्ट"
      ],
      [
        "कैं",
        "सर"
      ],
      [
        "खटखटा",
        "या"
      ],
      [
        "आवश्यक",
        "ता"
      ],
      [
        "आश्चर्",
        "य"
      ],
      [
        "अध",
        "ि"
      ],
      [
        "अमे",
        "रिका"
      ],
      [
        "अला",
        "वा"
      ],
      [
        "अर्",
        "थ"
      ],
      [
        "इला",
        "ज"
      ],
      [
        "उल्",
        "टी"
      ],
      [
        "खूब",
        "सूरत"
      ],
      [
        "छि",
        "पा"
      ],
      [
        "दफ़्",
        "तर"
      ],
      [
        "नक्",
        "शा"
      ],
      [
        "पचा",
        "स"
      ],
      [
        "पछता",
        "वा"
      ],
      [
        "मक्",
        "खन"
      ],
      [
        "वसी",
        "यत"
      ],
      [
        "हैरा",
        "न"
      ],
      [
        "करवा",
        "या"
      ],
      [
        "मुबार",
        "क"
      ],
      [
        "मुसीब",
        "त"
      ],
      [
        "रेलगा",
        "ड़ी"
      ],
      [
        "स्टॉ",
        "प"
      ],
      [
        "म्यु",
        "ज़ियम"
      ],
      [
        "बातची",
        "त"
      ],
      [
        "पुस्तकाल",
        "य"
      ],
      [
        "शादीशु",
        "दा"
      ],
      [
        "कब्रि",
        "स्तान"
      ],
      [
        "मुलाक़ा",
        "त"
      ],
      [
        "ँ",
        "तों"
      ],
      [
        "ं",
        "ध"
      ],
      [
        "ं",
        "कि"
      ],
      [
        "ं",
        "ति"
      ],
      [
        "ः",
        "खी"
      ],
      [
        "अ",
        "जन"
      ],
      [
        "आ",
        "ं"
      ],
      [
        "आ",
        "इ"
      ],
      [
        "आ",
        "ऊ"
      ],
      [
        "आ",
        "म"
      ],
      [
        "आ",
        "ल"
      ],
      [
        "आ",
        "कर"
      ],
      [
        "आ",
        "इस"
      ],
      [
        "आ",
        "शा"
      ],
      [
        "आ",
        "देश"
      ],
      [
        "आ",
        "मं"
      ],
      [
        "आ",
        "र्ट"
      ],
      [
        "आ",
        "बादी"
      ],
      [
        "आ",
        "भारी"
      ],
      [
        "इ",
        "ट"
      ],
      [
        "इ",
        "ले"
      ],
      [
        "इ",
        "किल"
      ],
      [
        "ई",
        "ये"
      ],
      [
        "ई",
        "मान"
      ],
      [
        "उ",
        "छ"
      ],
      [
        "उ",
        "बा"
      ],
      [
        "उ",
        "तर"
      ],
      [
        "उ",
        "ँगा"
      ],
      [
        "ऊ",
        "न"
      ],
      [
        "ए",
        "सी"
      ],
      [
        "ऐ",
        "क्"
      ],
      [
        "ओ",
        "गे"
      ],
      [
        "क",
        "ला"
      ],
      [
        "क",
        "मा"
      ],
      [
        "क",
        "क्षा"
      ],
      [
        "क",
        "ष्ट"
      ],
      [
        "क",
        "माता"
      ],
      [
        "ख",
        "क"
      ],
      [
        "ख",
        "्"
      ],
      [
        "ख",
        "ड़"
      ],
      [
        "ख",
        "याल"
      ],
      [
        "ख",
        "तरे"
      ],
      [
        "ग",
        "ं"
      ],
      [
        "ग",
        "ण"
      ],
      [
        "ग",
        "प"
      ],
      [
        "ग",
        "ज़"
      ],
      [
        "ग",
        "ें"
      ],
      [
        "ग",
        "ति"
      ],
      [
        "ग",
        "लती"
      ],
      [
        "घ",
        "ा"
      ],
      [
        "घ",
        "ूर"
      ],
      [
        "घ",
        "ूम"
      ],
      [
        "च",
        "म"
      ],
      [
        "च",
        "ड़"
      ],
      [
        "च",
        "ती"
      ],
      [
        "च",
        "कित"
      ],
      [
        "च",
        "ूर"
      ],
      [
        "च",
        "ढ़ा"
      ],
      [
        "ज",
        "ारी"
      ],
      [
        "ज",
        "चती"
      ],
      [
        "झ",
        "ग"
      ],
      [
        "झ",
        "कर"
      ],
      [
        "ट",
        "ियाँ"
      ],
      [
        "ट",
        "्रि"
      ],
      [
        "ट",
        "िंग"
      ],
      [
        "ड",
        "िया"
      ],
      [
        "ड",
        "ूब"
      ],
      [
        "ढ",
        "ूं"
      ],
      [
        "ण",
        "ी"
      ],
      [
        "त",
        "ट"
      ],
      [
        "त",
        "न"
      ],
      [
        "त",
        "ह"
      ],
      [
        "त",
        "री"
      ],
      [
        "त",
        "मी"
      ],
      [
        "थ",
        "म"
      ],
      [
        "थ",
        "र"
      ],
      [
        "थ",
        "ि"
      ],
      [
        "थ",
        "ें"
      ],
      [
        "द",
        "िए"
      ],
      [
        "द",
        "ों"
      ],
      [
        "द",
        "फ़"
      ],
      [
        "द",
        "्र"
      ],
      [
        "ध",
        "ु"
      ],
      [
        "ध",
        "ू"
      ],
      [
        "ध",
        "ों"
      ],
      [
        "ध",
        "ूल"
      ],
      [
        "ध",
        "ान"
      ],
      [
        "न",
        "ु"
      ],
      [
        "न",
        "ता"
      ],
      [
        "न",
        "ही"
      ],
      [
        "न",
        "ज़"
      ],
      [
        "न",
        "ष्ट"
      ],
      [
        "न",
        "र्म"
      ],
      [
        "न",
        "सीसी"
      ],
      [
        "प",
        "ृ"
      ],
      [
        "प",
        "ौ"
      ],
      [
        "प",
        "क्"
      ],
      [
        "प",
        "ों"
      ],
      [
        "प",
        "ंद"
      ],
      [
        "प",
        "टी"
      ],
      [
        "प",
        "स्थित"
      ],
      [
        "फ",
        "ट"
      ],
      [
        "फ",
        "ी"
      ],
      [
        "फ",
        "्रे"
      ],
      [
        "फ",
        "ँस"
      ],
      [
        "ब",
        "ई"
      ],
      [
        "ब",
        "से"
      ],
      [
        "ब",
        "री"
      ],
      [
        "ब",
        "सी"
      ],
      [
        "ब",
        "्रे"
      ],
      [
        "ब",
        "गी"
      ],
      [
        "ब",
        "यान"
      ],
      [
        "ब",
        "ंध"
      ],
      [
        "भ",
        "ु"
      ],
      [
        "भ",
        "विष"
      ],
      [
        "म",
        "रा"
      ],
      [
        "म",
        "ले"
      ],
      [
        "म",
        "नो"
      ],
      [
        "म",
        "खाने"
      ],
      [
        "म",
        "किन"
      ],
      [
        "म",
        "हिला"
      ],
      [
        "य",
        "ब"
      ],
      [
        "य",
        "ल"
      ],
      [
        "य",
        "ॉ"
      ],
      [
        "य",
        "ही"
      ],
      [
        "य",
        "ले"
      ],
      [
        "य",
        "दि"
      ],
      [
        "य",
        "कल"
      ],
      [
        "य",
        "ंत्र"
      ],
      [
        "य",
        "लेट"
      ],
      [
        "र",
        "ज"
      ],
      [
        "र",
        "स"
      ],
      [
        "र",
        "स्"
      ],
      [
        "र",
        "िया"
      ],
      [
        "र",
        "खो"
      ],
      [
        "र",
        "ंगी"
      ],
      [
        "र",
        "पान"
      ],
      [
        "र",
        "क्ष"
      ],
      [
        "ल",
        "न"
      ],
      [
        "ल",
        "दा"
      ],
      [
        "ल",
        "बी"
      ],
      [
        "ल",
        "ूँगा"
      ],
      [
        "व",
        "क"
      ],
      [
        "व",
        "ैसे"
      ],
      [
        "श",
        "त"
      ],
      [
        "श",
        "र"
      ],
      [
        "श",
        "तक"
      ],
      [
        "श",
        "िक"
      ],
      [
        "स",
        "द"
      ],
      [
        "स",
        "को"
      ],
      [
        "स",
        "रा"
      ],
      [
        "स",
        "ले"
      ],
      [
        "स",
        "लह"
      ],
      [
        "स",
        "गाई"
      ],
      [
        "स",
        "न्न"
      ],
      [
        "स",
        "ख्"
      ],
      [
        "ह",
        "री"
      ],
      [
        "ह",
        "िर"
      ],
      [
        "ह",
        "स्ता"
      ],
      [
        "ह",
        "ूर"
      ],
      [
        "ह",
        "ँस"
      ],
      [
        "ह",
        "स्पताल"
      ],
      [
        "ह",
        "त्या"
      ],
      [
        "ह",
        "सीना"
      ],
      [
        "़",
        "ा"
      ],
      [
        "ू",
        "क"
      ],
      [
        "ू",
        "ंगी"
      ],
      [
        "े",
        "द"
      ],
      [
        "ॉ",
        "बे"
      ],
      [
        "ो",
        "र"
      ],
      [
        "ो",
        "ता"
      ],
      [
        "ो",
        "बार"
      ],
      [
        "१",
        "८"
      ],
      [
        "६",
        "०"
      ],
      [
        "या",
        "ँ"
      ],
      [
        "या",
        "त्"
      ],
      [
        "ने",
        "जर"
      ],
      [
        "मे",
        "ट"
      ],
      [
        "मे",
        "क्"
      ],
      [
        "ता",
        "ल"
      ],
      [
        "ता",
        "ज़ी"
      ],
      [
        "ता",
        "ऊँगा"
      ],
      [
        "ता",
        "लाब"
      ],
      [
        "से",
        "ब"
      ],
      [
        "ही",
        "रा"
      ],
      [
        "कर",
        "ा"
      ],
      [
        "कर",
        "ु"
      ],
      [
        "कर",
        "दो"
      ],
      [
        "कर",
        "ूंगी"
      ],
      [
        "ना",
        "मु"
      ],
      [
        "ना",
        "रे"
      ],
      [
        "ना",
        "ज़"
      ],
      [
        "ना",
        "राज़"
      ],
      [
        "मै",
        "रि"
      ],
      [
        "मै",
        "नेजर"
      ],
      [
        "को",
        "यले"
      ],
      [
        "क्",
        "री"
      ],
      [
        "क्",
        "ट्रि"
      ],
      [
        "के",
        "स"
      ],
      [
        "में",
        "ट"
      ],
      [
        "हो",
        "कर"
      ],
      [
        "हो",
        "गे"
      ],
      [
        "हो",
        "ंगी"
      ],
      [
        "मु",
        "का"
      ],
      [
        "मु",
        "ड़"
      ],
      [
        "मु",
        "सला"
      ],
      [
        "कि",
        "ए"
      ],
      [
        "कि",
        "से"
      ],
      [
        "कि",
        "त्"
      ],
      [
        "कि",
        "लो"
      ],
      [
        "कि",
        "सान"
      ],
      [
        "कि",
        "नारे"
      ],
      [
        "की",
        "कात"
      ],
      [
        "की",
        "चड़"
      ],
      [
        "का",
        "टो"
      ],
      [
        "ड़",
        "वा"
      ],
      [
        "मुझ",
        "को"
      ],
      [
        "जा",
        "पानी"
      ],
      [
        "जा",
        "यदा"
      ],
      [
        "क्या",
        "ंश"
      ],
      [
        "हा",
        "द"
      ],
      [
        "हा",
        "ल"
      ],
      [
        "हा",
        "ला"
      ],
      [
        "हा",
        "थी"
      ],
      [
        "हा",
        "लत"
      ],
      [
        "ज़",
        "त"
      ],
      [
        "ज़",
        "ियाँ"
      ],
      [
        "सा",
        "बि"
      ],
      [
        "सा",
        "ँस"
      ],
      [
        "सा",
        "ंप"
      ],
      [
        "सा",
        "इकिल"
      ],
      [
        "सा",
        "यकल"
      ],
      [
        "वा",
        "ता"
      ],
      [
        "वा",
        "ही"
      ],
      [
        "वा",
        "नी"
      ],
      [
        "वा",
        "सी"
      ],
      [
        "वा",
        "स्त"
      ],
      [
        "वा",
        "क्यांश"
      ],
      [
        "चा",
        "हूँ"
      ],
      [
        "चा",
        "कू"
      ],
      [
        "रा",
        "ष्"
      ],
      [
        "रा",
        "प्त"
      ],
      [
        "रा",
        "सत"
      ],
      [
        "स्",
        "तक"
      ],
      [
        "स्",
        "पै"
      ],
      [
        "स्",
        "टर"
      ],
      [
        "स्",
        "वाद"
      ],
      [
        "स्",
        "वत"
      ],
      [
        "ला",
        "ता"
      ],
      [
        "ला",
        "पर"
      ],
      [
        "ला",
        "षा"
      ],
      [
        "नी",
        "ति"
      ],
      [
        "री",
        "य"
      ],
      [
        "पा",
        "ए"
      ],
      [
        "पा",
        "ते"
      ],
      [
        "पा",
        "लत"
      ],
      [
        "पा",
        "एगा"
      ],
      [
        "पर",
        "ियों"
      ],
      [
        "पर",
        "सों"
      ],
      [
        "दे",
        "ं"
      ],
      [
        "दे",
        "नी"
      ],
      [
        "दे",
        "ंगे"
      ],
      [
        "फ़",
        "ान"
      ],
      [
        "टॉ",
        "यलेट"
      ],
      [
        "ले",
        "खक"
      ],
      [
        "एक",
        "दम"
      ],
      [
        "दि",
        "मा"
      ],
      [
        "दि",
        "शा"
      ],
      [
        "दि",
        "यों"
      ],
      [
        "दि",
        "लाया"
      ],
      [
        "दि",
        "ल्ली"
      ],
      [
        "बा",
        "प"
      ],
      [
        "बा",
        "श"
      ],
      [
        "बा",
        "की"
      ],
      [
        "बा",
        "तें"
      ],
      [
        "आप",
        "त्"
      ],
      [
        "रह",
        "स्य"
      ],
      [
        "र्",
        "वक"
      ],
      [
        "दी",
        "वार"
      ],
      [
        "सम",
        "ा"
      ],
      [
        "सम",
        "िति"
      ],
      [
        "चाह",
        "ट"
      ],
      [
        "खा",
        "या"
      ],
      [
        "सी",
        "मा"
      ],
      [
        "मा",
        "ने"
      ],
      [
        "मा",
        "ंच"
      ],
      [
        "दो",
        "बार"
      ],
      [
        "इस",
        "का"
      ],
      [
        "लग",
        "ेंगे"
      ],
      [
        "कल",
        "कत्"
      ],
      [
        "शा",
        "ना"
      ],
      [
        "शा",
        "ली"
      ],
      [
        "शा",
        "ंत"
      ],
      [
        "शा",
        "ंति"
      ],
      [
        "शा",
        "बाश"
      ],
      [
        "दा",
        "दी"
      ],
      [
        "दा",
        "ढ़ी"
      ],
      [
        "दा",
        "ँतों"
      ],
      [
        "त्",
        "सव"
      ],
      [
        "तो",
        "ड़ी"
      ],
      [
        "तो",
        "ड़ो"
      ],
      [
        "ली",
        "स"
      ],
      [
        "वि",
        "त"
      ],
      [
        "वि",
        "रो"
      ],
      [
        "वि",
        "ष्"
      ],
      [
        "वि",
        "चार"
      ],
      [
        "मि",
        "त्र"
      ],
      [
        "लो",
        "म"
      ],
      [
        "लो",
        "हा"
      ],
      [
        "लो",
        "गे"
      ],
      [
        "मी",
        "टिंग"
      ],
      [
        "पास",
        "पोर्ट"
      ],
      [
        "उन",
        "में"
      ],
      [
        "उन",
        "पर"
      ],
      [
        "म्",
        "रपान"
      ],
      [
        "नि",
        "श"
      ],
      [
        "नि",
        "शान"
      ],
      [
        "नि",
        "यर"
      ],
      [
        "नि",
        "शाना"
      ],
      [
        "पह",
        "ला"
      ],
      [
        "पह",
        "नती"
      ],
      [
        "श्",
        "न"
      ],
      [
        "श्",
        "रे"
      ],
      [
        "श्",
        "मन"
      ],
      [
        "श्",
        "वर"
      ],
      [
        "सु",
        "रक्षा"
      ],
      [
        "सु",
        "रक्ष"
      ],
      [
        "मत",
        "लब"
      ],
      [
        "मत",
        "लबी"
      ],
      [
        "्र",
        "ॉबे"
      ],
      [
        "छो",
        "ड़े"
      ],
      [
        "भा",
        "व"
      ],
      [
        "रो",
        "मांच"
      ],
      [
        "जे",
        "ल"
      ],
      [
        "हुई",
        "ं"
      ],
      [
        "देख",
        "ो"
      ],
      [
        "देख",
        "ता"
      ],
      [
        "बी",
        "वी"
      ],
      [
        "सो",
        "कर"
      ],
      [
        "पढ़",
        "ी"
      ],
      [
        "पढ़",
        "ते"
      ],
      [
        "रू",
        "म"
      ],
      [
        "बि",
        "ल्"
      ],
      [
        "बि",
        "यों"
      ],
      [
        "्य",
        "ता"
      ],
      [
        "्य",
        "क्र"
      ],
      [
        "जान",
        "ने"
      ],
      [
        "जान",
        "बू"
      ],
      [
        "जी",
        "व"
      ],
      [
        "जी",
        "ना"
      ],
      [
        "जी",
        "वित"
      ],
      [
        "जी",
        "नियर"
      ],
      [
        "पि",
        "त"
      ],
      [
        "बे",
        "टी"
      ],
      [
        "बे",
        "कार"
      ],
      [
        "बे",
        "टा"
      ],
      [
        "चि",
        "ड़ियाँ"
      ],
      [
        "चि",
        "ड़िया"
      ],
      [
        "चि",
        "कित्"
      ],
      [
        "अच्छा",
        "ई"
      ],
      [
        "ति",
        "क"
      ],
      [
        "मिल",
        "कर"
      ],
      [
        "मिल",
        "ते"
      ],
      [
        "मिल",
        "ती"
      ],
      [
        "मद",
        "र"
      ],
      [
        "लि",
        "क"
      ],
      [
        "लि",
        "फ़्"
      ],
      [
        "लि",
        "पटा"
      ],
      [
        "लगा",
        "ए"
      ],
      [
        "लगा",
        "दी"
      ],
      [
        "वे",
        "श"
      ],
      [
        "सि",
        "को"
      ],
      [
        "सि",
        "तारे"
      ],
      [
        "करते",
        "ं"
      ],
      [
        "समझ",
        "े"
      ],
      [
        "समझ",
        "ने"
      ],
      [
        "समझ",
        "िए"
      ],
      [
        "समझ",
        "दार"
      ],
      [
        "अग",
        "स्त"
      ],
      [
        "वी",
        "प"
      ],
      [
        "वी",
        "डियो"
      ],
      [
        "गई",
        "ं"
      ],
      [
        "कार",
        "ण"
      ],
      [
        "कार",
        "ोबार"
      ],
      [
        "कार",
        "्यक्र"
      ],
      [
        "टे",
        "स्ट"
      ],
      [
        "न्",
        "दा"
      ],
      [
        "पू",
        "र्वक"
      ],
      [
        "हुए",
        "ँ"
      ],
      [
        "जि",
        "न"
      ],
      [
        "जि",
        "मखाने"
      ],
      [
        "मान",
        "ता"
      ],
      [
        "चल",
        "ने"
      ],
      [
        "चल",
        "ना"
      ],
      [
        "चल",
        "ती"
      ],
      [
        "चल",
        "तें"
      ],
      [
        "फ़्",
        "तार"
      ],
      [
        "कहा",
        "वत"
      ],
      [
        "दु",
        "ख"
      ],
      [
        "दु",
        "खी"
      ],
      [
        "दु",
        "ःखी"
      ],
      [
        "दु",
        "श्मन"
      ],
      [
        "पु",
        "स्तक"
      ],
      [
        "पु",
        "लीस"
      ],
      [
        "पै",
        "सा"
      ],
      [
        "पै",
        "रि"
      ],
      [
        "प्र",
        "ति"
      ],
      [
        "प्र",
        "दू"
      ],
      [
        "प्र",
        "थम"
      ],
      [
        "प्र",
        "सन्न"
      ],
      [
        "प्र",
        "श्न"
      ],
      [
        "बह",
        "स"
      ],
      [
        "ख़",
        "ा"
      ],
      [
        "ख़",
        "तरे"
      ],
      [
        "ख़",
        "त्म"
      ],
      [
        "बु",
        "रा"
      ],
      [
        "ट्",
        "रा"
      ],
      [
        "मौ",
        "ज"
      ],
      [
        "मौ",
        "का"
      ],
      [
        "सर",
        "ल"
      ],
      [
        "साल",
        "ों"
      ],
      [
        "देश",
        "ों"
      ],
      [
        "आए",
        "ँ"
      ],
      [
        "आए",
        "गी"
      ],
      [
        "आए",
        "ँगे"
      ],
      [
        "ऊँ",
        "ग"
      ],
      [
        "ऊँ",
        "चा"
      ],
      [
        "बंद",
        "र"
      ],
      [
        "बंद",
        "ूक"
      ],
      [
        "खो",
        "लिए"
      ],
      [
        "खो",
        "लो"
      ],
      [
        "हि",
        "त"
      ],
      [
        "हि",
        "फ़ा"
      ],
      [
        "हि",
        "रासत"
      ],
      [
        "बर",
        "स"
      ],
      [
        "माँ",
        "गे"
      ],
      [
        "माँ",
        "गो"
      ],
      [
        "उठ",
        "ना"
      ],
      [
        "रि",
        "हा"
      ],
      [
        "शु",
        "क्र"
      ],
      [
        "ज़ि",
        "ंदगी"
      ],
      [
        "ज़ि",
        "न्दा"
      ],
      [
        "खरी",
        "दा"
      ],
      [
        "ान",
        "ून"
      ],
      [
        "आया",
        "त"
      ],
      [
        "कह",
        "ते"
      ],
      [
        "कॉ",
        "ल"
      ],
      [
        "कॉ",
        "फी"
      ],
      [
        "सं",
        "पत्"
      ],
      [
        "सं",
        "ख्या"
      ],
      [
        "सं",
        "बंध"
      ],
      [
        "सू",
        "ज"
      ],
      [
        "सू",
        "ट"
      ],
      [
        "सू",
        "ची"
      ],
      [
        "सू",
        "रज"
      ],
      [
        "सोच",
        "ना"
      ],
      [
        "इं",
        "जीनियर"
      ],
      [
        "भूल",
        "ूँगा"
      ],
      [
        "मार",
        "ने"
      ],
      [
        "ज़ा",
        "ना"
      ],
      [
        "गु",
        "ना"
      ],
      [
        "गु",
        "ड़िया"
      ],
      [
        "गु",
        "लाब"
      ],
      [
        "गु",
        "लदा"
      ],
      [
        "पक",
        "ड़ी"
      ],
      [
        "प्या",
        "सा"
      ],
      [
        "बन",
        "ने"
      ],
      [
        "बन",
        "ना"
      ],
      [
        "किस",
        "को"
      ],
      [
        "किस",
        "की"
      ],
      [
        "सुन",
        "ते"
      ],
      [
        "रख",
        "दो"
      ],
      [
        "ष्",
        "ठ"
      ],
      [
        "ग़लत",
        "फ़ै"
      ],
      [
        "खेल",
        "ने"
      ],
      [
        "खेल",
        "ता"
      ],
      [
        "डर",
        "ता"
      ],
      [
        "बद",
        "ला"
      ],
      [
        "बद",
        "बू"
      ],
      [
        "बद",
        "तमी"
      ],
      [
        "भर",
        "ना"
      ],
      [
        "वाल",
        "ों"
      ],
      [
        "आई",
        "ए"
      ],
      [
        "आई",
        "एगा"
      ],
      [
        "क़",
        "ानून"
      ],
      [
        "जन",
        "संख्या"
      ],
      [
        "पत्",
        "तियों"
      ],
      [
        "पत्",
        "थर"
      ],
      [
        "बू",
        "ढ़ी"
      ],
      [
        "शहर",
        "ों"
      ],
      [
        "शान",
        "दार"
      ],
      [
        "विदेश",
        "ी"
      ],
      [
        "बच्च",
        "ें"
      ],
      [
        "दूस",
        "री"
      ],
      [
        "जू",
        "स"
      ],
      [
        "याद",
        "दाश्त"
      ],
      [
        "भाग",
        "ते"
      ],
      [
        "भाग",
        "्य"
      ],
      [
        "पीछ",
        "ा"
      ],
      [
        "तैया",
        "री"
      ],
      [
        "उठा",
        "या"
      ],
      [
        "उठा",
        "ने"
      ],
      [
        "पार्",
        "क"
      ],
      [
        "बैठ",
        "ो"
      ],
      [
        "तू",
        "फ़ान"
      ],
      [
        "द्",
        "दी"
      ],
      [
        "द्",
        "वीप"
      ],
      [
        "प्",
        "ता"
      ],
      [
        "प्",
        "राप्त"
      ],
      [
        "मर",
        "ने"
      ],
      [
        "क्ष",
        "र"
      ],
      [
        "क्ष",
        "ि"
      ],
      [
        "वाद",
        "्य"
      ],
      [
        "निकल",
        "ी"
      ],
      [
        "निकल",
        "ने"
      ],
      [
        "जिस",
        "के"
      ],
      [
        "जिस",
        "पर"
      ],
      [
        "दर्",
        "जन"
      ],
      [
        "न्य",
        "ू"
      ],
      [
        "न्य",
        "ोता"
      ],
      [
        "भू",
        "कम्प"
      ],
      [
        "मो",
        "टी"
      ],
      [
        "मो",
        "ड़ो"
      ],
      [
        "शि",
        "क्षा"
      ],
      [
        "शौ",
        "कीन"
      ],
      [
        "स्ट",
        "्रॉबे"
      ],
      [
        "उन्ह",
        "े"
      ],
      [
        "खिला",
        "फ़"
      ],
      [
        "सफ़",
        "ेद"
      ],
      [
        "दिख",
        "ता"
      ],
      [
        "पहचान",
        "ते"
      ],
      [
        "भाषा",
        "एँ"
      ],
      [
        "पूछ",
        "ने"
      ],
      [
        "पूछ",
        "ना"
      ],
      [
        "तैर",
        "कर"
      ],
      [
        "खरीद",
        "ने"
      ],
      [
        "खरीद",
        "ारी"
      ],
      [
        "ष्ट",
        "्र"
      ],
      [
        "अक्",
        "खड़"
      ],
      [
        "गिर",
        "फ़्तार"
      ],
      [
        "छू",
        "ने"
      ],
      [
        "पो",
        "स"
      ],
      [
        "वर्",
        "षा"
      ],
      [
        "सीख",
        "ने"
      ],
      [
        "डाल",
        "ना"
      ],
      [
        "ख़री",
        "दो"
      ],
      [
        "ख़री",
        "दीं"
      ],
      [
        "आँख",
        "ों"
      ],
      [
        "उत्",
        "पा"
      ],
      [
        "एँ",
        "गे"
      ],
      [
        "गल",
        "तियों"
      ],
      [
        "घु",
        "ल"
      ],
      [
        "मश",
        "हूर"
      ],
      [
        "मना",
        "या"
      ],
      [
        "शो",
        "क"
      ],
      [
        "सच्",
        "ची"
      ],
      [
        "स्वा",
        "गत"
      ],
      [
        "चुके",
        "ं"
      ],
      [
        "पड़ो",
        "सियों"
      ],
      [
        "खरीदी",
        "ं"
      ],
      [
        "शब्द",
        "ों"
      ],
      [
        "शब्द",
        "कोश"
      ],
      [
        "अभि",
        "ने"
      ],
      [
        "अभि",
        "मान"
      ],
      [
        "अभि",
        "लाषा"
      ],
      [
        "कू",
        "दो"
      ],
      [
        "गह",
        "री"
      ],
      [
        "घो",
        "सले"
      ],
      [
        "जु",
        "र्"
      ],
      [
        "जु",
        "ड़वा"
      ],
      [
        "धो",
        "खा"
      ],
      [
        "फूल",
        "ों"
      ],
      [
        "भे",
        "ज"
      ],
      [
        "लौ",
        "टा"
      ],
      [
        "रहती",
        "ं"
      ],
      [
        "माता",
        "पिता"
      ],
      [
        "चुकी",
        "ं"
      ],
      [
        "समझा",
        "या"
      ],
      [
        "समझा",
        "उँगा"
      ],
      [
        "कम्प",
        "्यू"
      ],
      [
        "फ़िल्",
        "में"
      ],
      [
        "ंत्र",
        "ता"
      ],
      [
        "आस",
        "पास"
      ],
      [
        "जरू",
        "री"
      ],
      [
        "टू",
        "ट"
      ],
      [
        "टू",
        "टी"
      ],
      [
        "बत्",
        "तियाँ"
      ],
      [
        "कर्",
        "ज़"
      ],
      [
        "नियम",
        "ों"
      ],
      [
        "पढ़ा",
        "ना"
      ],
      [
        "लिख",
        "ना"
      ],
      [
        "सिखा",
        "या"
      ],
      [
        "फ़्रा",
        "न्स"
      ],
      [
        "फ़्रा",
        "नसीसी"
      ],
      [
        "खोल",
        "ते"
      ],
      [
        "व्यक्ति",
        "गत"
      ],
      [
        "अनु",
        "पस्थित"
      ],
      [
        "मज़े",
        "दार"
      ],
      [
        "उप",
        "योग"
      ],
      [
        "उतार",
        "ने"
      ],
      [
        "कं",
        "जूस"
      ],
      [
        "चौ",
        "ंक"
      ],
      [
        "झा",
        "ना"
      ],
      [
        "पं",
        "ख"
      ],
      [
        "प्रे",
        "म"
      ],
      [
        "समु",
        "द्र"
      ],
      [
        "हल्",
        "के"
      ],
      [
        "हल्",
        "का"
      ],
      [
        "१९",
        "७"
      ],
      [
        "जाऊ",
        "ंगा"
      ],
      [
        "सम्",
        "मान"
      ],
      [
        "कुर",
        "सियाँ"
      ],
      [
        "चुरा",
        "ने"
      ],
      [
        "घुसा",
        "ना"
      ],
      [
        "दौड़",
        "ने"
      ],
      [
        "कत्",
        "ल"
      ],
      [
        "टु",
        "क"
      ],
      [
        "तौ",
        "लिया"
      ],
      [
        "नहा",
        "ता"
      ],
      [
        "फै",
        "ला"
      ],
      [
        "फें",
        "क"
      ],
      [
        "बॉ",
        "स"
      ],
      [
        "बॉ",
        "स्टन"
      ],
      [
        "बढ़ा",
        "ने"
      ],
      [
        "शे",
        "र"
      ],
      [
        "करूँ",
        "गी"
      ],
      [
        "पर्",
        "वत"
      ],
      [
        "तोह",
        "फ़े"
      ],
      [
        "निक",
        "ले"
      ],
      [
        "डाँ",
        "ट"
      ],
      [
        "हिचकि",
        "चा"
      ],
      [
        "हिचकि",
        "चाहट"
      ],
      [
        "माँग",
        "नी"
      ],
      [
        "खीं",
        "ची"
      ],
      [
        "अड्",
        "डे"
      ],
      [
        "उल",
        "टी"
      ],
      [
        "चू",
        "हा"
      ],
      [
        "पका",
        "या"
      ],
      [
        "पक्ष",
        "ी"
      ],
      [
        "पश्चि",
        "मी"
      ],
      [
        "बहा",
        "दु"
      ],
      [
        "भौ",
        "तिक"
      ],
      [
        "मर्",
        "ज़ी"
      ],
      [
        "लै",
        "ंड"
      ],
      [
        "वस्",
        "तु"
      ],
      [
        "हँ",
        "से"
      ],
      [
        "हड़",
        "ताल"
      ],
      [
        "हज़ार",
        "ों"
      ],
      [
        "नाश्",
        "ता"
      ],
      [
        "कीम",
        "ती"
      ],
      [
        "रेश",
        "म"
      ],
      [
        "स्प",
        "द"
      ],
      [
        "स्ति",
        "थि"
      ],
      [
        "पर्या",
        "वरण"
      ],
      [
        "लगे",
        "गी"
      ],
      [
        "सब्",
        "ज़ियाँ"
      ],
      [
        "रोक",
        "ने"
      ],
      [
        "सिर",
        "दर्द"
      ],
      [
        "संभ",
        "व"
      ],
      [
        "मार्",
        "ग"
      ],
      [
        "क़ै",
        "दी"
      ],
      [
        "मंदि",
        "रों"
      ],
      [
        "छुट्",
        "टी"
      ],
      [
        "आश्चर्य",
        "चकित"
      ],
      [
        "अधि",
        "कार"
      ],
      [
        "आल",
        "सी"
      ],
      [
        "आइस",
        "क्री"
      ],
      [
        "इट",
        "ली"
      ],
      [
        "इले",
        "क्ट्रि"
      ],
      [
        "ऐक्",
        "सीडेंट"
      ],
      [
        "गण",
        "ित"
      ],
      [
        "गें",
        "द"
      ],
      [
        "डूब",
        "ते"
      ],
      [
        "ढूं",
        "ढ"
      ],
      [
        "तह",
        "कीकात"
      ],
      [
        "तरी",
        "के"
      ],
      [
        "धू",
        "म्रपान"
      ],
      [
        "नही",
        "ँ"
      ],
      [
        "नज़",
        "र"
      ],
      [
        "पक्",
        "का"
      ],
      [
        "पंद",
        "्"
      ],
      [
        "बसी",
        "ं"
      ],
      [
        "भविष",
        "्य"
      ],
      [
        "यॉ",
        "र्क"
      ],
      [
        "शिक",
        "़ा"
      ],
      [
        "सरा",
        "सर"
      ],
      [
        "हिर",
        "ण"
      ],
      [
        "हस्ता",
        "क्षर"
      ],
      [
        "मेक्",
        "सिको"
      ],
      [
        "नामु",
        "मकिन"
      ],
      [
        "मैरि",
        "ज"
      ],
      [
        "होंगी",
        "ं"
      ],
      [
        "मुका",
        "बले"
      ],
      [
        "मुड़",
        "कर"
      ],
      [
        "मुसला",
        "धार"
      ],
      [
        "जायदा",
        "द"
      ],
      [
        "हाला",
        "ंकि"
      ],
      [
        "साबि",
        "त"
      ],
      [
        "वास्त",
        "व"
      ],
      [
        "चाहूँ",
        "गी"
      ],
      [
        "राष्",
        "ट्"
      ],
      [
        "स्पै",
        "निश"
      ],
      [
        "स्वत",
        "ंत्रता"
      ],
      [
        "लापर",
        "वाही"
      ],
      [
        "पालत",
        "ू"
      ],
      [
        "दिमा",
        "ग़"
      ],
      [
        "दोबार",
        "ा"
      ],
      [
        "कलकत्",
        "ता"
      ],
      [
        "विष्",
        "व"
      ],
      [
        "सुरक्ष",
        "ित"
      ],
      [
        "रोमांच",
        "क"
      ],
      [
        "जानबू",
        "झकर"
      ],
      [
        "लिफ़्",
        "ट"
      ],
      [
        "कार्यक्र",
        "म"
      ],
      [
        "पैरि",
        "स"
      ],
      [
        "हिफ़ा",
        "ज़त"
      ],
      [
        "शुक्र",
        "वार"
      ],
      [
        "संपत्",
        "ति"
      ],
      [
        "गुलदा",
        "न"
      ],
      [
        "ग़लतफ़ै",
        "मी"
      ],
      [
        "बदतमी",
        "ज़"
      ],
      [
        "स्ट्रॉबे",
        "री"
      ],
      [
        "अक्खड़",
        "पन"
      ],
      [
        "कम्प्यू",
        "टर"
      ],
      [
        "आइसक्री",
        "म"
      ],
      [
        "इलेक्ट्रि",
        "कल"
      ],
      [
        "शिक़ा",
        "यत"
      ],
      [
        "\"",
        "।"
      ],
      [
        "0",
        "0"
      ],
      [
        "1",
        "00"
      ],
      [
        "9",
        "7"
      ],
      [
        "?",
        "!"
      ],
      [
        "ँ",
        "क"
      ],
      [
        "ँ",
        "घ"
      ],
      [
        "ँ",
        "द"
      ],
      [
        "ँ",
        "को"
      ],
      [
        "ँ",
        "सी"
      ],
      [
        "ँ",
        "ओं"
      ],
      [
        "ँ",
        "डे"
      ],
      [
        "ं",
        "छ"
      ],
      [
        "ं",
        "ज"
      ],
      [
        "ं",
        "ट"
      ],
      [
        "ं",
        "व"
      ],
      [
        "ं",
        "ह"
      ],
      [
        "ं",
        "का"
      ],
      [
        "ं",
        "जा"
      ],
      [
        "ं",
        "पी"
      ],
      [
        "ं",
        "कित"
      ],
      [
        "ं",
        "सीसी"
      ],
      [
        "ं",
        "याँ"
      ],
      [
        "अ",
        "ट"
      ],
      [
        "अ",
        "ठ"
      ],
      [
        "अ",
        "ह"
      ],
      [
        "अ",
        "ना"
      ],
      [
        "अ",
        "ड़"
      ],
      [
        "अ",
        "रे"
      ],
      [
        "अ",
        "नी"
      ],
      [
        "अ",
        "कल"
      ],
      [
        "अ",
        "नि"
      ],
      [
        "अ",
        "सर"
      ],
      [
        "अ",
        "द्"
      ],
      [
        "अ",
        "ज्ञ"
      ],
      [
        "अ",
        "रें"
      ],
      [
        "अ",
        "विश्व"
      ],
      [
        "अ",
        "स्वीकार"
      ],
      [
        "अ",
        "स्ति"
      ],
      [
        "अ",
        "कलम"
      ],
      [
        "अ",
        "सुरक्षित"
      ],
      [
        "अ",
        "ँडे"
      ],
      [
        "आ",
        "य"
      ],
      [
        "आ",
        "श"
      ],
      [
        "आ",
        "के"
      ],
      [
        "आ",
        "ज़"
      ],
      [
        "आ",
        "पा"
      ],
      [
        "आ",
        "ले"
      ],
      [
        "आ",
        "त्"
      ],
      [
        "आ",
        "मद"
      ],
      [
        "आ",
        "कार"
      ],
      [
        "आ",
        "ऊँ"
      ],
      [
        "आ",
        "खि"
      ],
      [
        "आ",
        "यो"
      ],
      [
        "आ",
        "खरी"
      ],
      [
        "आ",
        "जाओ"
      ],
      [
        "आ",
        "ज़ा"
      ],
      [
        "आ",
        "धी"
      ],
      [
        "आ",
        "धा"
      ],
      [
        "आ",
        "लू"
      ],
      [
        "आ",
        "धे"
      ],
      [
        "आ",
        "मने"
      ],
      [
        "आ",
        "त्म"
      ],
      [
        "इ",
        "क"
      ],
      [
        "इ",
        "प"
      ],
      [
        "इ",
        "म"
      ],
      [
        "इ",
        "व"
      ],
      [
        "इ",
        "श"
      ],
      [
        "इ",
        "या"
      ],
      [
        "इ",
        "क्"
      ],
      [
        "इ",
        "सी"
      ],
      [
        "इ",
        "ंग"
      ],
      [
        "इ",
        "च्छ"
      ],
      [
        "इ",
        "जी"
      ],
      [
        "इ",
        "न्"
      ],
      [
        "इ",
        "मार"
      ],
      [
        "इ",
        "नाम"
      ],
      [
        "इ",
        "न्द"
      ],
      [
        "इ",
        "गज़"
      ],
      [
        "ई",
        "श"
      ],
      [
        "ई",
        "ने"
      ],
      [
        "ई",
        "नाम"
      ],
      [
        "ई",
        "एगा"
      ],
      [
        "ई",
        "श्वर"
      ],
      [
        "उ",
        "द"
      ],
      [
        "उ",
        "ता"
      ],
      [
        "उ",
        "दा"
      ],
      [
        "उ",
        "पह"
      ],
      [
        "उ",
        "ठी"
      ],
      [
        "उ",
        "द्"
      ],
      [
        "उ",
        "तनी"
      ],
      [
        "उ",
        "तरे"
      ],
      [
        "उ",
        "बले"
      ],
      [
        "उ",
        "गाई"
      ],
      [
        "उ",
        "चित"
      ],
      [
        "ऊ",
        "जी"
      ],
      [
        "ऋ",
        "तु"
      ],
      [
        "ए",
        "ल"
      ],
      [
        "ए",
        "व"
      ],
      [
        "ए",
        "श"
      ],
      [
        "ए",
        "स"
      ],
      [
        "ए",
        "गी"
      ],
      [
        "ए",
        "ड्"
      ],
      [
        "ए",
        "यर"
      ],
      [
        "ऐ",
        "न"
      ],
      [
        "ऐ",
        "म"
      ],
      [
        "ऑ",
        "क्"
      ],
      [
        "ऑ",
        "र्"
      ],
      [
        "ओ",
        "पन"
      ],
      [
        "क",
        "हूँ"
      ],
      [
        "क",
        "सम"
      ],
      [
        "क",
        "यों"
      ],
      [
        "क",
        "भार"
      ],
      [
        "क",
        "प्र"
      ],
      [
        "क",
        "टो"
      ],
      [
        "क",
        "द्"
      ],
      [
        "क",
        "पड़ो"
      ],
      [
        "क",
        "लेट"
      ],
      [
        "क",
        "दम"
      ],
      [
        "क",
        "टाने"
      ],
      [
        "क",
        "ताऊँगा"
      ],
      [
        "क",
        "प्ता"
      ],
      [
        "ख",
        "र"
      ],
      [
        "ख",
        "कर"
      ],
      [
        "ख",
        "रा"
      ],
      [
        "ख",
        "म्"
      ],
      [
        "ख",
        "ट्"
      ],
      [
        "ख",
        "ैर"
      ],
      [
        "ग",
        "फ"
      ],
      [
        "ग",
        "ू"
      ],
      [
        "ग",
        "ौ"
      ],
      [
        "ग",
        "ना"
      ],
      [
        "ग",
        "वा"
      ],
      [
        "ग",
        "ला"
      ],
      [
        "ग",
        "्र"
      ],
      [
        "ग",
        "ड़े"
      ],
      [
        "ग",
        "ियाँ"
      ],
      [
        "ग",
        "रि"
      ],
      [
        "ग",
        "बन"
      ],
      [
        "ग",
        "वाह"
      ],
      [
        "ग",
        "ैर"
      ],
      [
        "ग",
        "ड्"
      ],
      [
        "घ",
        "म"
      ],
      [
        "घ",
        "ि"
      ],
      [
        "च",
        "ॉ"
      ],
      [
        "च",
        "ना"
      ],
      [
        "च",
        "ों"
      ],
      [
        "च",
        "ंद"
      ],
      [
        "च",
        "चे"
      ],
      [
        "च",
        "ट्"
      ],
      [
        "च",
        "रि"
      ],
      [
        "च",
        "पटी"
      ],
      [
        "च",
        "खकर"
      ],
      [
        "छ",
        "ट"
      ],
      [
        "छ",
        "टी"
      ],
      [
        "छ",
        "ान"
      ],
      [
        "छ",
        "पे"
      ],
      [
        "छ",
        "ाई"
      ],
      [
        "छ",
        "ीन"
      ],
      [
        "ज",
        "म"
      ],
      [
        "ज",
        "र्"
      ],
      [
        "ज",
        "गे"
      ],
      [
        "ज",
        "्य"
      ],
      [
        "ज",
        "्यादा"
      ],
      [
        "ज",
        "हां"
      ],
      [
        "ज",
        "ताई"
      ],
      [
        "ज",
        "लाती"
      ],
      [
        "झ",
        "ि"
      ],
      [
        "झ",
        "े"
      ],
      [
        "झ",
        "ाई"
      ],
      [
        "झ",
        "लक"
      ],
      [
        "ट",
        "ल"
      ],
      [
        "ट",
        "ह"
      ],
      [
        "ट",
        "ें"
      ],
      [
        "ट",
        "र्"
      ],
      [
        "ट",
        "ल्"
      ],
      [
        "ट",
        "्रै"
      ],
      [
        "ट",
        "मेंट"
      ],
      [
        "ठ",
        "ा"
      ],
      [
        "ठ",
        "हर"
      ],
      [
        "ठ",
        "ियों"
      ],
      [
        "ठ",
        "हरे"
      ],
      [
        "ठ",
        "हरा"
      ],
      [
        "ड",
        "ु"
      ],
      [
        "ड",
        "ो"
      ],
      [
        "ड",
        "क्"
      ],
      [
        "ड",
        "रा"
      ],
      [
        "ड",
        "रो"
      ],
      [
        "ड",
        "्यू"
      ],
      [
        "ढ",
        "क"
      ],
      [
        "ढ",
        "ल"
      ],
      [
        "ढ",
        "ा"
      ],
      [
        "ढ",
        "े"
      ],
      [
        "ण",
        "ा"
      ],
      [
        "ण",
        "्"
      ],
      [
        "त",
        "ता"
      ],
      [
        "त",
        "का"
      ],
      [
        "त",
        "स्"
      ],
      [
        "त",
        "ला"
      ],
      [
        "त",
        "भी"
      ],
      [
        "त",
        "बा"
      ],
      [
        "त",
        "कल"
      ],
      [
        "त",
        "त्"
      ],
      [
        "त",
        "म्"
      ],
      [
        "त",
        "करी"
      ],
      [
        "त",
        "मान"
      ],
      [
        "त",
        "ख़"
      ],
      [
        "त",
        "ौर"
      ],
      [
        "त",
        "रीका"
      ],
      [
        "त",
        "ंत्र"
      ],
      [
        "त",
        "लें"
      ],
      [
        "थ",
        "ू"
      ],
      [
        "थ",
        "्"
      ],
      [
        "थ",
        "के"
      ],
      [
        "थ",
        "का"
      ],
      [
        "थ",
        "प्"
      ],
      [
        "थ",
        "रूम"
      ],
      [
        "द",
        "ल"
      ],
      [
        "द",
        "ह"
      ],
      [
        "द",
        "या"
      ],
      [
        "द",
        "वा"
      ],
      [
        "द",
        "बा"
      ],
      [
        "द",
        "शा"
      ],
      [
        "द",
        "स्त"
      ],
      [
        "द",
        "याल"
      ],
      [
        "द",
        "ंत"
      ],
      [
        "द",
        "राज़"
      ],
      [
        "द",
        "रें"
      ],
      [
        "द",
        "्रो"
      ],
      [
        "द",
        "सियों"
      ],
      [
        "द",
        "क्षि"
      ],
      [
        "ध",
        "र"
      ],
      [
        "ध",
        "रे"
      ],
      [
        "ध",
        "ती"
      ],
      [
        "ध",
        "र्म"
      ],
      [
        "ध",
        "नु"
      ],
      [
        "न",
        "न"
      ],
      [
        "न",
        "र"
      ],
      [
        "न",
        "ल"
      ],
      [
        "न",
        "व"
      ],
      [
        "न",
        "स"
      ],
      [
        "न",
        "ूँ"
      ],
      [
        "न",
        "टी"
      ],
      [
        "न",
        "लि"
      ],
      [
        "न",
        "न्"
      ],
      [
        "न",
        "ियाँ"
      ],
      [
        "न",
        "ब्"
      ],
      [
        "न",
        "याद"
      ],
      [
        "न",
        "शे"
      ],
      [
        "प",
        "ट"
      ],
      [
        "प",
        "नी"
      ],
      [
        "प",
        "सी"
      ],
      [
        "प",
        "ल्"
      ],
      [
        "प",
        "मान"
      ],
      [
        "प",
        "ियाँ"
      ],
      [
        "प",
        "ेंट"
      ],
      [
        "प",
        "योग"
      ],
      [
        "प",
        "टरी"
      ],
      [
        "प",
        "सीना"
      ],
      [
        "फ",
        "ा"
      ],
      [
        "फ",
        "्"
      ],
      [
        "फ",
        "ार"
      ],
      [
        "फ",
        "टा"
      ],
      [
        "फ",
        "ंस"
      ],
      [
        "ब",
        "च"
      ],
      [
        "ब",
        "म"
      ],
      [
        "ब",
        "ल"
      ],
      [
        "ब",
        "ॅ"
      ],
      [
        "ब",
        "ौ"
      ],
      [
        "ब",
        "कर"
      ],
      [
        "ब",
        "की"
      ],
      [
        "ब",
        "ड़"
      ],
      [
        "ब",
        "ल्"
      ],
      [
        "ब",
        "ची"
      ],
      [
        "ब",
        "्य"
      ],
      [
        "ब",
        "जाए"
      ],
      [
        "ब",
        "चे"
      ],
      [
        "ब",
        "नो"
      ],
      [
        "ब",
        "जाते"
      ],
      [
        "ब",
        "टु"
      ],
      [
        "ब",
        "गैर"
      ],
      [
        "ब",
        "तख़"
      ],
      [
        "भ",
        "ता"
      ],
      [
        "भ",
        "रे"
      ],
      [
        "भ",
        "री"
      ],
      [
        "भ",
        "काम"
      ],
      [
        "भ",
        "्र"
      ],
      [
        "भ",
        "यान"
      ],
      [
        "भ",
        "्यता"
      ],
      [
        "म",
        "ई"
      ],
      [
        "म",
        "य"
      ],
      [
        "म",
        "ू"
      ],
      [
        "म",
        "ॉ"
      ],
      [
        "म",
        "हो"
      ],
      [
        "म",
        "चा"
      ],
      [
        "म",
        "ला"
      ],
      [
        "म",
        "री"
      ],
      [
        "म",
        "दी"
      ],
      [
        "म",
        "ंद"
      ],
      [
        "म",
        "जे"
      ],
      [
        "म",
        "मेरा"
      ],
      [
        "म",
        "गर"
      ],
      [
        "म",
        "कान"
      ],
      [
        "य",
        "ं"
      ],
      [
        "य",
        "हीं"
      ],
      [
        "य",
        "ें"
      ],
      [
        "य",
        "र्"
      ],
      [
        "य",
        "त्"
      ],
      [
        "य",
        "क़"
      ],
      [
        "र",
        "हीं"
      ],
      [
        "र",
        "फ़"
      ],
      [
        "र",
        "सो"
      ],
      [
        "र",
        "खे"
      ],
      [
        "र",
        "ियाँ"
      ],
      [
        "र",
        "टना"
      ],
      [
        "र",
        "झा"
      ],
      [
        "र",
        "णा"
      ],
      [
        "र",
        "बड़"
      ],
      [
        "ल",
        "य"
      ],
      [
        "ल",
        "ॉ"
      ],
      [
        "ल",
        "ता"
      ],
      [
        "ल",
        "्ह"
      ],
      [
        "ल",
        "ड़ा"
      ],
      [
        "ल",
        "ची"
      ],
      [
        "ल",
        "न्"
      ],
      [
        "ल",
        "ब्"
      ],
      [
        "ल",
        "ेंगे"
      ],
      [
        "ल",
        "ंच"
      ],
      [
        "ल",
        "ैन"
      ],
      [
        "ल",
        "तियों"
      ],
      [
        "ल",
        "डी"
      ]
    ]
  }
}